{
  "version": "1.0",
  "truncation": null,
  "padding": null,
  "added_tokens": [
    {
      "id": 0,
      "content": "[PAD]",
      "single_word": false,
      "lstrip": false,
      "rstrip": false,
      "normalized": false,
      "special": true
    },
    {
      "id": 1,
      "content": "[UNK]",
      "single_word": false,
      "lstrip": false,
      "rstrip": false,
      "normalized": false,
      "special": true
    },
    {
      "id": 2,
      "content": "[CLS]",
      "single_word": false,
      "lstrip": false,
      "rstrip": false,
      "normalized": false,
      "special": true
    },
    {
      "id": 3,
      "content": "[SEP]",
      "single_word": false,
      "lstrip": false,
      "rstrip": false,
      "normalized": false,
      "special": true
    },
    {
      "id": 4,
      "content": "[MASK]",
      "single_word": false,
      "lstrip": false,
      "rstrip": false,
      "normalized": false,
      "special": true
    }
  ],
  "normalizer": null,
  "pre_tokenizer": {
    "type": "Whitespace"
  },
  "post_processor": null,
  "decoder": null,
  "model": {
    "type": "BPE",
    "dropout": null,
    "unk_token": "[UNK]",
    "continuing_subword_prefix": null,
    "end_of_word_suffix": null,
    "fuse_unk": false,
    "byte_fallback": false,
    "ignore_merges": false,
    "vocab": {
      "[PAD]": 0,
      "[UNK]": 1,
      "[CLS]": 2,
      "[SEP]": 3,
      "[MASK]": 4,
      "!": 5,
      "\"": 6,
      "$": 7,
      "%": 8,
      "'": 9,
      "(": 10,
      ")": 11,
      ",": 12,
      "-": 13,
      ".": 14,
      "/": 15,
      "0": 16,
      "1": 17,
      "2": 18,
      "3": 19,
      "4": 20,
      "5": 21,
      "6": 22,
      "7": 23,
      "8": 24,
      "9": 25,
      ":": 26,
      ";": 27,
      ">": 28,
      "?": 29,
      "A": 30,
      "B": 31,
      "C": 32,
      "D": 33,
      "E": 34,
      "F": 35,
      "G": 36,
      "H": 37,
      "I": 38,
      "J": 39,
      "K": 40,
      "L": 41,
      "M": 42,
      "N": 43,
      "O": 44,
      "P": 45,
      "Q": 46,
      "R": 47,
      "S": 48,
      "T": 49,
      "U": 50,
      "V": 51,
      "W": 52,
      "X": 53,
      "Y": 54,
      "Z": 55,
      "[": 56,
      "]": 57,
      "a": 58,
      "b": 59,
      "c": 60,
      "d": 61,
      "e": 62,
      "f": 63,
      "g": 64,
      "h": 65,
      "i": 66,
      "j": 67,
      "k": 68,
      "l": 69,
      "m": 70,
      "n": 71,
      "o": 72,
      "p": 73,
      "q": 74,
      "r": 75,
      "s": 76,
      "t": 77,
      "u": 78,
      "v": 79,
      "w": 80,
      "x": 81,
      "y": 82,
      "z": 83,
      "|": 84,
      "th": 85,
      "in": 86,
      "the": 87,
      "an": 88,
      "re": 89,
      "at": 90,
      "er": 91,
      "on": 92,
      "es": 93,
      "en": 94,
      "or": 95,
      "of": 96,
      "al": 97,
      "ed": 98,
      "ar": 99,
      "as": 100,
      "ing": 101,
      "to": 102,
      "is": 103,
      "ti": 104,
      "ro": 105,
      "and": 106,
      "ic": 107,
      "ou": 108,
      "le": 109,
      "it": 110,
      "st": 111,
      "lo": 112,
      "he": 113,
      "ly": 114,
      "ent": 115,
      "ac": 116,
      "ve": 117,
      "se": 118,
      "ion": 119,
      "be": 120,
      "me": 121,
      "de": 122,
      "ag": 123,
      "ra": 124,
      "that": 125,
      "il": 126,
      "ch": 127,
      "su": 128,
      "co": 129,
      "for": 130,
      "The": 131,
      "im": 132,
      "ation": 133,
      "ts": 134,
      "ce": 135,
      "ab": 136,
      "mo": 137,
      "we": 138,
      "ol": 139,
      "ur": 140,
      "ir": 141,
      "ig": 142,
      "are": 143,
      "tion": 144,
      "pe": 145,
      "con": 146,
      "wh": 147,
      "ex": 148,
      "un": 149,
      "ter": 150,
      "ul": 151,
      "di": 152,
      "pro": 153,
      "ph": 154,
      "pl": 155,
      "ha": 156,
      "no": 157,
      "po": 158,
      "per": 159,
      "ver": 160,
      "par": 161,
      "est": 162,
      "ci": 163,
      "res": 164,
      "so": 165,
      "ay": 166,
      "te": 167,
      "ord": 168,
      "id": 169,
      "ain": 170,
      "low": 171,
      "am": 172,
      "ct": 173,
      "li": 174,
      "ge": 175,
      "ate": 176,
      "fro": 177,
      "ther": 178,
      "ith": 179,
      "from": 180,
      "fe": 181,
      "com": 182,
      "us": 183,
      "by": 184,
      "was": 185,
      "ad": 186,
      "red": 187,
      "ess": 188,
      "ater": 189,
      "ri": 190,
      "ass": 191,
      "raph": 192,
      "igh": 193,
      "age": 194,
      "ment": 195,
      "with": 196,
      "were": 197,
      "ne": 198,
      "od": 199,
      "out": 200,
      "ca": 201,
      "ers": 202,
      "qu": 203,
      "ant": 204,
      "agraph": 205,
      "ich": 206,
      "cc": 207,
      "ld": 208,
      "all": 209,
      "form": 210,
      "oun": 211,
      "ity": 212,
      "um": 213,
      "si": 214,
      "por": 215,
      "ut": 216,
      "ke": 217,
      "paragraph": 218,
      "not": 219,
      "ev": 220,
      "du": 221,
      "have": 222,
      "ally": 223,
      "cl": 224,
      "als": 225,
      "ist": 226,
      "do": 227,
      "fo": 228,
      "ated": 229,
      "pass": 230,
      "ans": 231,
      "cont": 232,
      "ho": 233,
      "ear": 234,
      "their": 235,
      "can": 236,
      "chan": 237,
      "which": 238,
      "In": 239,
      "ill": 240,
      "ple": 241,
      "gh": 242,
      "passage": 243,
      "than": 244,
      "und": 245,
      "ence": 246,
      "clo": 247,
      "more": 248,
      "able": 249,
      "vi": 250,
      "ll": 251,
      "mean": 252,
      "port": 253,
      "land": 254,
      "water": 255,
      "ous": 256,
      "ma": 257,
      "tic": 258,
      "meaning": 259,
      "they": 260,
      "To": 261,
      "other": 262,
      "ru": 263,
      "ure": 264,
      "spe": 265,
      "use": 266,
      "fic": 267,
      "ould": 268,
      "ast": 269,
      "cre": 270,
      "gro": 271,
      "ffe": 272,
      "pres": 273,
      "ren": 274,
      "ording": 275,
      "ong": 276,
      "fac": 277,
      "em": 278,
      "one": 279,
      "ction": 280,
      "man": 281,
      "ants": 282,
      "Acc": 283,
      "cent": 284,
      "According": 285,
      "ical": 286,
      "ight": 287,
      "It": 288,
      "ten": 289,
      "Wh": 290,
      "clos": 291,
      "fol": 292,
      "log": 293,
      "ap": 294,
      "iz": 295,
      "word": 296,
      "lowing": 297,
      "about": 298,
      "had": 299,
      "sur": 300,
      "av": 301,
      "closest": 302,
      "its": 303,
      "ces": 304,
      "enti": 305,
      "ations": 306,
      "speci": 307,
      "pre": 308,
      "ties": 309,
      "ound": 310,
      "wn": 311,
      "produ": 312,
      "ind": 313,
      "tr": 314,
      "00": 315,
      "pr": 316,
      "ved": 317,
      "gen": 318,
      "up": 319,
      "following": 320,
      "way": 321,
      "ine": 322,
      "ck": 323,
      "been": 324,
      "ach": 325,
      "tra": 326,
      "most": 327,
      "ive": 328,
      "but": 329,
      "anim": 330,
      "dis": 331,
      "sh": 332,
      "They": 333,
      "fore": 334,
      "lar": 335,
      "wor": 336,
      "ies": 337,
      "high": 338,
      "ty": 339,
      "ors": 340,
      "some": 341,
      "over": 342,
      "beca": 343,
      "ms": 344,
      "our": 345,
      "formation": 346,
      "Th": 347,
      "velo": 348,
      "creas": 349,
      "ments": 350,
      "mer": 351,
      "how": 352,
      "gan": 353,
      "pos": 354,
      "pul": 355,
      "sa": 356,
      "rou": 357,
      "ting": 358,
      "des": 359,
      "ps": 360,
      "year": 361,
      "ree": 362,
      "species": 363,
      "plants": 364,
      "this": 365,
      "develo": 366,
      "used": 367,
      "import": 368,
      "ble": 369,
      "str": 370,
      "pen": 371,
      "ult": 372,
      "peri": 373,
      "ance": 374,
      "develop": 375,
      "ists": 376,
      "tern": 377,
      "rough": 378,
      "has": 379,
      "ide": 380,
      "mu": 381,
      "om": 382,
      "whe": 383,
      "au": 384,
      "ish": 385,
      "ite": 386,
      "rel": 387,
      "time": 388,
      "popul": 389,
      "inf": 390,
      "sup": 391,
      "ents": 392,
      "ary": 393,
      "ted": 394,
      "ory": 395,
      "ough": 396,
      "ard": 397,
      "bu": 398,
      "min": 399,
      "may": 400,
      "information": 401,
      "tem": 402,
      "increas": 403,
      "ari": 404,
      "ak": 405,
      "fi": 406,
      "gre": 407,
      "bo": 408,
      "ace": 409,
      "when": 410,
      "into": 411,
      "ild": 412,
      "ates": 413,
      "change": 414,
      "tions": 415,
      "ges": 416,
      "ric": 417,
      "olog": 418,
      "ural": 419,
      "ced": 420,
      "could": 421,
      "animals": 422,
      "tim": 423,
      "cor": 424,
      "organ": 425,
      "ign": 426,
      "diffe": 427,
      "tain": 428,
      "tive": 429,
      "sp": 430,
      "only": 431,
      "many": 432,
      "sy": 433,
      "new": 434,
      "there": 435,
      "Ear": 436,
      "differen": 437,
      "cts": 438,
      "bet": 439,
      "ves": 440,
      "ative": 441,
      "peo": 442,
      "such": 443,
      "ob": 444,
      "ures": 445,
      "them": 446,
      "important": 447,
      "art": 448,
      "el": 449,
      "large": 450,
      "arch": 451,
      "ext": 452,
      "ential": 453,
      "fir": 454,
      "like": 455,
      "long": 456,
      "occ": 457,
      "reg": 458,
      "comm": 459,
      "years": 460,
      "ber": 461,
      "light": 462,
      "these": 463,
      "period": 464,
      "Earth": 465,
      "arm": 466,
      "ss": 467,
      "ways": 468,
      "expl": 469,
      "essential": 470,
      "grow": 471,
      "ack": 472,
      "ween": 473,
      "very": 474,
      "ving": 475,
      "loc": 476,
      "uring": 477,
      "main": 478,
      "act": 479,
      "cess": 480,
      "face": 481,
      "people": 482,
      "vol": 483,
      "ice": 484,
      "sent": 485,
      "fact": 486,
      "wo": 487,
      "less": 488,
      "mar": 489,
      "because": 490,
      "vid": 491,
      "what": 492,
      "ele": 493,
      "between": 494,
      "soci": 495,
      "where": 496,
      "through": 497,
      "temper": 498,
      "would": 499,
      "ds": 500,
      "gu": 501,
      "gra": 502,
      "if": 503,
      "car": 504,
      "does": 505,
      "work": 506,
      "first": 507,
      "centur": 508,
      "ser": 509,
      "why": 510,
      "ful": 511,
      "did": 512,
      "stem": 513,
      "now": 514,
      "any": 515,
      "also": 516,
      "areas": 517,
      "cted": 518,
      "contin": 519,
      "ific": 520,
      "temperat": 521,
      "rock": 522,
      "tle": 523,
      "stru": 524,
      "vel": 525,
      "gg": 526,
      "made": 527,
      "ose": 528,
      "int": 529,
      "lands": 530,
      "idence": 531,
      "under": 532,
      "num": 533,
      "surface": 534,
      "inter": 535,
      "bi": 536,
      "nat": 537,
      "sim": 538,
      "sul": 539,
      "sm": 540,
      "ating": 541,
      "much": 542,
      "thor": 543,
      "system": 544,
      "found": 545,
      "gy": 546,
      "sol": 547,
      "rect": 548,
      "tiv": 549,
      "ular": 550,
      "af": 551,
      "ep": 552,
      "sed": 553,
      "iron": 554,
      "food": 555,
      "ffic": 556,
      "rit": 557,
      "gener": 558,
      "different": 559,
      "occur": 560,
      "ry": 561,
      "though": 562,
      "requ": 563,
      "author": 564,
      "che": 565,
      "ial": 566,
      "ings": 567,
      "ices": 568,
      "ility": 569,
      "der": 570,
      "during": 571,
      "population": 572,
      "century": 573,
      "small": 574,
      "dist": 575,
      "explain": 576,
      "ail": 577,
      "ia": 578,
      "well": 579,
      "ited": 580,
      "ars": 581,
      "ew": 582,
      "fl": 583,
      "evidence": 584,
      "early": 585,
      "go": 586,
      "effe": 587,
      "sion": 588,
      "hum": 589,
      "ran": 590,
      "Which": 591,
      "pt": 592,
      "eas": 593,
      "pred": 594,
      "sign": 595,
      "ences": 596,
      "trans": 597,
      "ual": 598,
      "ave": 599,
      "mat": 600,
      "soil": 601,
      "region": 602,
      "vari": 603,
      "ters": 604,
      "ses": 605,
      "et": 606,
      "sc": 607,
      "exam": 608,
      "king": 609,
      "ven": 610,
      "cient": 611,
      "col": 612,
      "part": 613,
      "present": 614,
      "ground": 615,
      "will": 616,
      "bl": 617,
      "come": 618,
      "same": 619,
      "cro": 620,
      "mater": 621,
      "ages": 622,
      "life": 623,
      "clim": 624,
      "Amer": 625,
      "best": 626,
      "ks": 627,
      "wer": 628,
      "Americ": 629,
      "men": 630,
      "set": 631,
      "cho": 632,
      "ale": 633,
      "acc": 634,
      "This": 635,
      "val": 636,
      "ons": 637,
      "eds": 638,
      "ise": 639,
      "ines": 640,
      "ded": 641,
      "hy": 642,
      "ref": 643,
      "resul": 644,
      "ably": 645,
      "organis": 646,
      "sub": 647,
      "comple": 648,
      "ian": 649,
      "ins": 650,
      "ability": 651,
      "cons": 652,
      "cer": 653,
      "two": 654,
      "even": 655,
      "bas": 656,
      "pes": 657,
      "then": 658,
      "18": 659,
      "move": 660,
      "clu": 661,
      "je": 662,
      "env": 663,
      "who": 664,
      "ake": 665,
      "cri": 666,
      "ip": 667,
      "mill": 668,
      "Eu": 669,
      "Ro": 670,
      "plant": 671,
      "environ": 672,
      "ys": 673,
      "rope": 674,
      "below": 675,
      "tech": 676,
      "forest": 677,
      "cle": 678,
      "ste": 679,
      "ount": 680,
      "Ch": 681,
      "tru": 682,
      "support": 683,
      "sel": 684,
      "exp": 685,
      "led": 686,
      "became": 687,
      "mon": 688,
      "before": 689,
      "ized": 690,
      "gi": 691,
      "ene": 692,
      "evol": 693,
      "changes": 694,
      "Europe": 695,
      "ization": 696,
      "ae": 697,
      "ger": 698,
      "vis": 699,
      "ener": 700,
      "char": 701,
      "contro": 702,
      "trade": 703,
      "correct": 704,
      "air": 705,
      "iment": 706,
      "appe": 707,
      "extin": 708,
      "gl": 709,
      "ged": 710,
      "ities": 711,
      "pol": 712,
      "show": 713,
      "after": 714,
      "ile": 715,
      "os": 716,
      "cause": 717,
      "development": 718,
      "times": 719,
      "19": 720,
      "hel": 721,
      "dition": 722,
      "ding": 723,
      "day": 724,
      "ution": 725,
      "contain": 726,
      "cul": 727,
      "those": 728,
      "level": 729,
      "wever": 730,
      "aves": 731,
      "ze": 732,
      "hun": 733,
      "nor": 734,
      "sea": 735,
      "depen": 736,
      "vide": 737,
      "cy": 738,
      "pon": 739,
      "organisms": 740,
      "CE": 741,
      "tre": 742,
      "stri": 743,
      "need": 744,
      "ccess": 745,
      "bir": 746,
      "den": 747,
      "lay": 748,
      "EX": 749,
      "fer": 750,
      "ie": 751,
      "enth": 752,
      "stand": 753,
      "expres": 754,
      "ricult": 755,
      "commun": 756,
      "energy": 757,
      "CEP": 758,
      "EXCEP": 759,
      "ctive": 760,
      "urn": 761,
      "provide": 762,
      "chem": 763,
      "ological": 764,
      "fin": 765,
      "leave": 766,
      "success": 767,
      "EXCEPT": 768,
      "rec": 769,
      "stu": 770,
      "heat": 771,
      "process": 772,
      "world": 773,
      "possi": 774,
      "So": 775,
      "farm": 776,
      "oce": 777,
      "remain": 778,
      "ese": 779,
      "build": 780,
      "br": 781,
      "istic": 782,
      "agricult": 783,
      "ods": 784,
      "000": 785,
      "great": 786,
      "true": 787,
      "Par": 788,
      "med": 789,
      "natural": 790,
      "Un": 791,
      "ites": 792,
      "place": 793,
      "ize": 794,
      "indic": 795,
      "flow": 796,
      "ino": 797,
      "ically": 798,
      "state": 799,
      "number": 800,
      "example": 801,
      "choices": 802,
      "ily": 803,
      "les": 804,
      "orig": 805,
      "temperature": 806,
      "often": 807,
      "acter": 808,
      "ago": 809,
      "sugg": 810,
      "posi": 811,
      "environment": 812,
      "suggest": 813,
      "ped": 814,
      "allow": 815,
      "power": 816,
      "survi": 817,
      "tu": 818,
      "highlight": 819,
      "ssil": 820,
      "Ho": 821,
      "ques": 822,
      "side": 823,
      "tivity": 824,
      "Mo": 825,
      "pain": 826,
      "ward": 827,
      "inclu": 828,
      "outh": 829,
      "area": 830,
      "sentence": 831,
      "highlighted": 832,
      "econ": 833,
      "past": 834,
      "beli": 835,
      "mem": 836,
      "rain": 837,
      "vers": 838,
      "struct": 839,
      "aw": 840,
      "lim": 841,
      "argu": 842,
      "comp": 843,
      "sentences": 844,
      "ft": 845,
      "provid": 846,
      "descri": 847,
      "both": 848,
      "continu": 849,
      "Paragraph": 850,
      "ators": 851,
      "growth": 852,
      "each": 853,
      "lit": 854,
      "ase": 855,
      "too": 856,
      "Incorrect": 857,
      "make": 858,
      "group": 859,
      "animal": 860,
      "expresses": 861,
      "ick": 862,
      "become": 863,
      "term": 864,
      "diffic": 865,
      "nown": 866,
      "fossil": 867,
      "An": 868,
      "partic": 869,
      "increase": 870,
      "call": 871,
      "gr": 872,
      "known": 873,
      "ply": 874,
      "usu": 875,
      "get": 876,
      "ody": 877,
      "human": 878,
      "far": 879,
      "million": 880,
      "flo": 881,
      "ious": 882,
      "ni": 883,
      "econom": 884,
      "particular": 885,
      "op": 886,
      "ently": 887,
      "plan": 888,
      "teenth": 889,
      "formed": 890,
      "likely": 891,
      "graph": 892,
      "ire": 893,
      "sal": 894,
      "ories": 895,
      "ason": 896,
      "prob": 897,
      "Roman": 898,
      "ox": 899,
      "indi": 900,
      "ples": 901,
      "compe": 902,
      "origin": 903,
      "Al": 904,
      "sto": 905,
      "tical": 906,
      "For": 907,
      "bon": 908,
      "body": 909,
      "cur": 910,
      "hist": 911,
      "aces": 912,
      "extinction": 913,
      "city": 914,
      "produce": 915,
      "complex": 916,
      "ety": 917,
      "vo": 918,
      "child": 919,
      "earli": 920,
      "What": 921,
      "production": 922,
      "cus": 923,
      "indu": 924,
      "stre": 925,
      "produced": 926,
      "relative": 927,
      "signific": 928,
      "mention": 929,
      "dy": 930,
      "pread": 931,
      "developed": 932,
      "Be": 933,
      "ath": 934,
      "her": 935,
      "lu": 936,
      "mass": 937,
      "ustr": 938,
      "ens": 939,
      "road": 940,
      "akes": 941,
      "volcan": 942,
      "certain": 943,
      "fil": 944,
      "ning": 945,
      "adv": 946,
      "climate": 947,
      "bre": 948,
      "back": 949,
      "hab": 950,
      "rest": 951,
      "end": 952,
      "These": 953,
      "activity": 954,
      "ilar": 955,
      "redu": 956,
      "sive": 957,
      "Why": 958,
      "common": 959,
      "pal": 960,
      "ats": 961,
      "play": 962,
      "must": 963,
      "infer": 964,
      "ials": 965,
      "jor": 966,
      "sho": 967,
      "acific": 968,
      "being": 969,
      "old": 970,
      "saur": 971,
      "probably": 972,
      "As": 973,
      "ton": 974,
      "ina": 975,
      "qual": 976,
      "forms": 977,
      "When": 978,
      "control": 979,
      "birds": 980,
      "Pacific": 981,
      "hand": 982,
      "ually": 983,
      "exist": 984,
      "major": 985,
      "avail": 986,
      "temperatures": 987,
      "possible": 988,
      "sk": 989,
      "sequ": 990,
      "cep": 991,
      "exper": 992,
      "view": 993,
      "trees": 994,
      "vered": 995,
      "search": 996,
      "prac": 997,
      "miner": 998,
      "mam": 999,
      "proble": 1000,
      "record": 1001,
      "individ": 1002,
      "cr": 1003,
      "sour": 1004,
      "turn": 1005,
      "role": 1006,
      "here": 1007,
      "pot": 1008,
      "within": 1009,
      "near": 1010,
      "50": 1011,
      "mal": 1012,
      "anti": 1013,
      "enough": 1014,
      "respon": 1015,
      "ished": 1016,
      "crops": 1017,
      "Some": 1018,
      "ient": 1019,
      "theory": 1020,
      "ones": 1021,
      "estern": 1022,
      "round": 1023,
      "ditions": 1024,
      "ately": 1025,
      "size": 1026,
      "increased": 1027,
      "By": 1028,
      "bers": 1029,
      "dra": 1030,
      "moder": 1031,
      "veral": 1032,
      "stream": 1033,
      "significant": 1034,
      "bes": 1035,
      "his": 1036,
      "ked": 1037,
      "west": 1038,
      "seeds": 1039,
      "posed": 1040,
      "difficult": 1041,
      "usually": 1042,
      "He": 1043,
      "Nor": 1044,
      "waves": 1045,
      "along": 1046,
      "ict": 1047,
      "covered": 1048,
      "iments": 1049,
      "point": 1050,
      "populations": 1051,
      "similar": 1052,
      "character": 1053,
      "depend": 1054,
      "strial": 1055,
      "curren": 1056,
      "seem": 1057,
      "order": 1058,
      "contr": 1059,
      "Gree": 1060,
      "ied": 1061,
      "vent": 1062,
      "meters": 1063,
      "rap": 1064,
      "urb": 1065,
      "few": 1066,
      "sediment": 1067,
      "effect": 1068,
      "cientists": 1069,
      "material": 1070,
      "materials": 1071,
      "painting": 1072,
      "modern": 1073,
      "St": 1074,
      "cing": 1075,
      "cour": 1076,
      "reach": 1077,
      "met": 1078,
      "amount": 1079,
      "emph": 1080,
      "greater": 1081,
      "inferred": 1082,
      "cal": 1083,
      "coun": 1084,
      "fun": 1085,
      "nut": 1086,
      "sha": 1087,
      "living": 1088,
      "centr": 1089,
      "local": 1090,
      "elements": 1091,
      "called": 1092,
      "children": 1093,
      "affe": 1094,
      "oil": 1095,
      "thern": 1096,
      "inosaur": 1097,
      "fam": 1098,
      "later": 1099,
      "own": 1100,
      "pur": 1101,
      "atic": 1102,
      "rodu": 1103,
      "deer": 1104,
      "ared": 1105,
      "obser": 1106,
      "carbon": 1107,
      "),": 1108,
      "Sun": 1109,
      "nest": 1110,
      "ness": 1111,
      "real": 1112,
      "several": 1113,
      "down": 1114,
      "idea": 1115,
      "glac": 1116,
      "ocean": 1117,
      "New": 1118,
      "ax": 1119,
      "dri": 1120,
      "eco": 1121,
      "ju": 1122,
      "open": 1123,
      "sti": 1124,
      "spread": 1125,
      "around": 1126,
      "tian": 1127,
      "There": 1128,
      "cap": 1129,
      "refle": 1130,
      "rapid": 1131,
      "nutri": 1132,
      "bene": 1133,
      "ue": 1134,
      "inten": 1135,
      "beg": 1136,
      "conditions": 1137,
      "while": 1138,
      "overn": 1139,
      "sing": 1140,
      "tri": 1141,
      "ince": 1142,
      "coast": 1143,
      "nolog": 1144,
      "cial": 1145,
      "vious": 1146,
      "introdu": 1147,
      "habit": 1148,
      "she": 1149,
      "oral": 1150,
      "til": 1151,
      "prote": 1152,
      "prim": 1153,
      "elect": 1154,
      "result": 1155,
      "chemical": 1156,
      "ths": 1157,
      "ancient": 1158,
      "lead": 1159,
      "stone": 1160,
      "sure": 1161,
      "exten": 1162,
      "help": 1163,
      "position": 1164,
      "Because": 1165,
      ").": 1166,
      "bed": 1167,
      "ef": 1168,
      "fr": 1169,
      "know": 1170,
      "ner": 1171,
      "ances": 1172,
      "ational": 1173,
      "among": 1174,
      "technolog": 1175,
      "evolution": 1176,
      "Af": 1177,
      "dinosaur": 1178,
      "find": 1179,
      "ilo": 1180,
      "kind": 1181,
      "sound": 1182,
      "another": 1183,
      "eng": 1184,
      "impro": 1185,
      "caused": 1186,
      "making": 1187,
      "clear": 1188,
      "On": 1189,
      "gas": 1190,
      "hi": 1191,
      "ls": 1192,
      "research": 1193,
      "ism": 1194,
      "rop": 1195,
      "parts": 1196,
      "feed": 1197,
      "however": 1198,
      "discus": 1199,
      "influ": 1200,
      "increasing": 1201,
      "regions": 1202,
      "appear": 1203,
      "event": 1204,
      "larger": 1205,
      "grass": 1206,
      "salt": 1207,
      "relatively": 1208,
      "cult": 1209,
      "govern": 1210,
      "ined": 1211,
      "ering": 1212,
      "islands": 1213,
      "rather": 1214,
      "cell": 1215,
      "pothe": 1216,
      "type": 1217,
      "systems": 1218,
      "hypothe": 1219,
      "available": 1220,
      "aim": 1221,
      "might": 1222,
      "scientists": 1223,
      "close": 1224,
      "archae": 1225,
      "rocks": 1226,
      "Brit": 1227,
      "frequ": 1228,
      "pat": 1229,
      "sen": 1230,
      "sis": 1231,
      "slow": 1232,
      "atmo": 1233,
      "ising": 1234,
      "needed": 1235,
      "wide": 1236,
      "invol": 1237,
      "sug": 1238,
      "addition": 1239,
      "social": 1240,
      "predators": 1241,
      "North": 1242,
      "eld": 1243,
      "intern": 1244,
      "igr": 1245,
      "cities": 1246,
      "geolog": 1247,
      "comb": 1248,
      "using": 1249,
      "fied": 1250,
      "But": 1251,
      "fish": 1252,
      "inte": 1253,
      "began": 1254,
      "percent": 1255,
      "appro": 1256,
      "ship": 1257,
      "field": 1258,
      "farmers": 1259,
      "little": 1260,
      "history": 1261,
      "ather": 1262,
      "mil": 1263,
      "pare": 1264,
      "off": 1265,
      "depos": 1266,
      "deep": 1267,
      "pers": 1268,
      "parti": 1269,
      "domin": 1270,
      "cannot": 1271,
      "itect": 1272,
      "growing": 1273,
      "understand": 1274,
      "occurred": 1275,
      "range": 1276,
      "America": 1277,
      "rail": 1278,
      "identi": 1279,
      "without": 1280,
      "came": 1281,
      "jects": 1282,
      "En": 1283,
      "cu": 1284,
      "ired": 1285,
      "ot": 1286,
      "western": 1287,
      "ort": 1288,
      "cover": 1289,
      "ids": 1290,
      "commer": 1291,
      "cles": 1292,
      "just": 1293,
      "lan": 1294,
      "sum": 1295,
      "resour": 1296,
      "adap": 1297,
      "study": 1298,
      "medi": 1299,
      "still": 1300,
      "At": 1301,
      "eth": 1302,
      "hard": 1303,
      "jo": 1304,
      "mic": 1305,
      "migr": 1306,
      "thin": 1307,
      "star": 1308,
      "ions": 1309,
      "beha": 1310,
      "cept": 1311,
      "abl": 1312,
      "dies": 1313,
      "ider": 1314,
      "ports": 1315,
      "factors": 1316,
      "self": 1317,
      "agricultural": 1318,
      "argue": 1319,
      "eties": 1320,
      "free": 1321,
      "ging": 1322,
      "read": 1323,
      "atu": 1324,
      "left": 1325,
      "again": 1326,
      "lived": 1327,
      "ountain": 1328,
      "claim": 1329,
      "types": 1330,
      "goods": 1331,
      "paren": 1332,
      "last": 1333,
      "three": 1334,
      "imp": 1335,
      "phy": 1336,
      "resist": 1337,
      "eved": 1338,
      "special": 1339,
      "relig": 1340,
      "American": 1341,
      "emphas": 1342,
      "Many": 1343,
      "sites": 1344,
      "youn": 1345,
      "era": 1346,
      "ont": 1347,
      "once": 1348,
      "aced": 1349,
      "ilt": 1350,
      "phys": 1351,
      "sphere": 1352,
      "periods": 1353,
      "settle": 1354,
      "advant": 1355,
      "sugges": 1356,
      "dry": 1357,
      "mes": 1358,
      "mals": 1359,
      "table": 1360,
      "wind": 1361,
      "rought": 1362,
      "colon": 1363,
      "based": 1364,
      "agriculture": 1365,
      "survive": 1366,
      "However": 1367,
      "competi": 1368,
      "0s": 1369,
      "blo": 1370,
      "rul": 1371,
      "vation": 1372,
      "reason": 1373,
      "rogen": 1374,
      "ics": 1375,
      "action": 1376,
      "moved": 1377,
      "until": 1378,
      "pose": 1379,
      "necess": 1380,
      "contri": 1381,
      "prin": 1382,
      "longer": 1383,
      "United": 1384,
      "One": 1385,
      "bro": 1386,
      "stim": 1387,
      "acro": 1388,
      "organic": 1389,
      "architect": 1390,
      "matter": 1391,
      "groups": 1392,
      "earlier": 1393,
      "mammals": 1394,
      "paintings": 1395,
      "We": 1396,
      "every": 1397,
      "gal": 1398,
      "pri": 1399,
      "writ": 1400,
      "inv": 1401,
      "island": 1402,
      "sele": 1403,
      "experi": 1404,
      "establ": 1405,
      "clay": 1406,
      "created": 1407,
      "prey": 1408,
      "techni": 1409,
      "explo": 1410,
      "States": 1411,
      "atmosphere": 1412,
      "suggests": 1413,
      "All": 1414,
      "Mes": 1415,
      "ame": 1416,
      "dest": 1417,
      "fy": 1418,
      "uals": 1419,
      "ygen": 1420,
      "olith": 1421,
      "termin": 1422,
      "uses": 1423,
      "quick": 1424,
      "presence": 1425,
      "arily": 1426,
      "provided": 1427,
      "Although": 1428,
      "Afric": 1429,
      "olithic": 1430,
      "lack": 1431,
      "rate": 1432,
      "zing": 1433,
      "decl": 1434,
      "radi": 1435,
      "abo": 1436,
      "abund": 1437,
      "ols": 1438,
      "surround": 1439,
      "easily": 1440,
      "oxygen": 1441,
      "Greek": 1442,
      "urban": 1443,
      "dinosaurs": 1444,
      "behavi": 1445,
      "stimul": 1446,
      "Ven": 1447,
      "bal": 1448,
      "bur": 1449,
      "pu": 1450,
      "vil": 1451,
      "acti": 1452,
      "abs": 1453,
      "tery": 1454,
      "lower": 1455,
      "rub": 1456,
      "generally": 1457,
      "Egy": 1458,
      "awn": 1459,
      "dle": 1460,
      "rise": 1461,
      "trop": 1462,
      "war": 1463,
      "warm": 1464,
      "yon": 1465,
      "associ": 1466,
      "ental": 1467,
      "veget": 1468,
      "urther": 1469,
      "phr": 1470,
      "channe": 1471,
      "illustr": 1472,
      "design": 1473,
      "location": 1474,
      "societies": 1475,
      "flu": 1476,
      "variety": 1477,
      "indicate": 1478,
      "volcano": 1479,
      "Asi": 1480,
      "South": 1481,
      "hip": 1482,
      "mus": 1483,
      "oto": 1484,
      "tace": 1485,
      "inse": 1486,
      "ator": 1487,
      "ands": 1488,
      "active": 1489,
      "dec": 1490,
      "proper": 1491,
      "feat": 1492,
      "try": 1493,
      "higher": 1494,
      "strong": 1495,
      "effects": 1496,
      "steam": 1497,
      "buildings": 1498,
      "structure": 1499,
      "source": 1500,
      "Cre": 1501,
      "late": 1502,
      "ograph": 1503,
      "since": 1504,
      "thing": 1505,
      "represent": 1506,
      "ales": 1507,
      "iddle": 1508,
      "cape": 1509,
      "deser": 1510,
      "fully": 1511,
      "humans": 1512,
      "economic": 1513,
      "quality": 1514,
      "commercial": 1515,
      "micro": 1516,
      "impact": 1517,
      "across": 1518,
      "equ": 1519,
      "fall": 1520,
      "thir": 1521,
      "reli": 1522,
      "today": 1523,
      "abor": 1524,
      "que": 1525,
      "class": 1526,
      "ills": 1527,
      "sometimes": 1528,
      "supply": 1529,
      "marke": 1530,
      "soils": 1531,
      "communities": 1532,
      "fossils": 1533,
      "industrial": 1534,
      "contrast": 1535,
      "function": 1536,
      "glaci": 1537,
      "hypothesis": 1538,
      "railroad": 1539,
      "Ar": 1540,
      "Su": 1541,
      "har": 1542,
      "take": 1543,
      "rely": 1544,
      "recent": 1545,
      "ark": 1546,
      "arri": 1547,
      "separ": 1548,
      "Their": 1549,
      "teach": 1550,
      "gether": 1551,
      "river": 1552,
      "changed": 1553,
      "importance": 1554,
      "relations": 1555,
      "supports": 1556,
      "boo": 1557,
      "characteristic": 1558,
      "single": 1559,
      "Ne": 1560,
      "cir": 1561,
      "egg": 1562,
      "sn": 1563,
      "always": 1564,
      "aster": 1565,
      "issu": 1566,
      "oud": 1567,
      "uni": 1568,
      "infants": 1569,
      "space": 1570,
      "numbers": 1571,
      "levels": 1572,
      "Most": 1573,
      "parent": 1574,
      "If": 1575,
      "ible": 1576,
      "mis": 1577,
      "pa": 1578,
      "tw": 1579,
      "ata": 1580,
      "almost": 1581,
      "constru": 1582,
      "dire": 1583,
      "keep": 1584,
      "should": 1585,
      "aken": 1586,
      "transport": 1587,
      "evolved": 1588,
      "remains": 1589,
      "current": 1590,
      "young": 1591,
      "quickly": 1592,
      "above": 1593,
      "bor": 1594,
      "ets": 1595,
      "mountain": 1596,
      "ping": 1597,
      "site": 1598,
      "yawn": 1599,
      "reco": 1600,
      "together": 1601,
      "tial": 1602,
      "prof": 1603,
      "fire": 1604,
      "extre": 1605,
      "located": 1606,
      "versity": 1607,
      "limited": 1608,
      "break": 1609,
      "problem": 1610,
      "pattern": 1611,
      "religious": 1612,
      "Per": 1613,
      "cas": 1614,
      "mi": 1615,
      "nine": 1616,
      "put": 1617,
      "tree": 1618,
      "wall": 1619,
      "zed": 1620,
      "isto": 1621,
      "becom": 1622,
      "cool": 1623,
      "cold": 1624,
      "placed": 1625,
      "verse": 1626,
      "civil": 1627,
      "travel": 1628,
      "built": 1629,
      "explan": 1630,
      "mark": 1631,
      "throughout": 1632,
      "fficient": 1633,
      "question": 1634,
      "individual": 1635,
      "physical": 1636,
      "ley": 1637,
      "secon": 1638,
      "meas": 1639,
      "dep": 1640,
      "determin": 1641,
      "aged": 1642,
      "ides": 1643,
      "umul": 1644,
      "events": 1645,
      "vities": 1646,
      "others": 1647,
      "solar": 1648,
      "eastern": 1649,
      "various": 1650,
      "consider": 1651,
      "building": 1652,
      "benef": 1653,
      "technology": 1654,
      "phrase": 1655,
      "--": 1656,
      "East": 1657,
      "brought": 1658,
      "oper": 1659,
      "sou": 1660,
      "seed": 1661,
      "means": 1662,
      "del": 1663,
      "sun": 1664,
      "peci": 1665,
      "live": 1666,
      "ryst": 1667,
      "colle": 1668,
      "complete": 1669,
      "poli": 1670,
      "cultiv": 1671,
      "government": 1672,
      "interest": 1673,
      "emphasize": 1674,
      "10": 1675,
      "cra": 1676,
      "dark": 1677,
      "ei": 1678,
      "right": 1679,
      "anal": 1680,
      "toward": 1681,
      "itable": 1682,
      "meth": 1683,
      "core": 1684,
      "plic": 1685,
      "haps": 1686,
      "clock": 1687,
      "previous": 1688,
      "marine": 1689,
      "continents": 1690,
      "thought": 1691,
      "European": 1692,
      "hunting": 1693,
      "include": 1694,
      "minerals": 1695,
      "particles": 1696,
      "Se": 1697,
      "away": 1698,
      "vill": 1699,
      "alth": 1700,
      "actions": 1701,
      "photo": 1702,
      "hap": 1703,
      "vert": 1704,
      "umer": 1705,
      "follow": 1706,
      "short": 1707,
      "Thus": 1708,
      "artists": 1709,
      "require": 1710,
      "accumul": 1711,
      "hyd": 1712,
      "gios": 1713,
      "oceans": 1714,
      "How": 1715,
      "ecolog": 1716,
      "begin": 1717,
      "advantage": 1718,
      "vegetation": 1719,
      "extreme": 1720,
      "second": 1721,
      "giosper": 1722,
      "Pale": 1723,
      "ade": 1724,
      "cam": 1725,
      "cru": 1726,
      "da": 1727,
      "fig": 1728,
      "lake": 1729,
      "run": 1730,
      "tal": 1731,
      "tail": 1732,
      "yed": 1733,
      "thous": 1734,
      "tice": 1735,
      "leaves": 1736,
      "states": 1737,
      "mete": 1738,
      "decreas": 1739,
      "ults": 1740,
      "diversity": 1741,
      "quanti": 1742,
      "tradition": 1743,
      "Earths": 1744,
      "wood": 1745,
      "good": 1746,
      "accur": 1747,
      "movement": 1748,
      "statements": 1749,
      "took": 1750,
      "mineral": 1751,
      "against": 1752,
      "recog": 1753,
      "cat": 1754,
      "cryst": 1755,
      "kes": 1756,
      "rates": 1757,
      "snow": 1758,
      "winter": 1759,
      "outs": 1760,
      "conne": 1761,
      "direct": 1762,
      "related": 1763,
      "objects": 1764,
      "society": 1765,
      "forests": 1766,
      "China": 1767,
      "believed": 1768,
      "mentioned": 1769,
      "famil": 1770,
      "Asia": 1771,
      "direction": 1772,
      "nineteenth": 1773,
      "With": 1774,
      "gs": 1775,
      "ians": 1776,
      "ives": 1777,
      "oid": 1778,
      "ris": 1779,
      "rig": 1780,
      "south": 1781,
      "reat": 1782,
      "tools": 1783,
      "roo": 1784,
      "sty": 1785,
      "fort": 1786,
      "perform": 1787,
      "composition": 1788,
      "emp": 1789,
      "themsel": 1790,
      "occup": 1791,
      "required": 1792,
      "distri": 1793,
      "subst": 1794,
      "consist": 1795,
      "poll": 1796,
      "layers": 1797,
      "experiments": 1798,
      "rapidly": 1799,
      "techniques": 1800,
      "activities": 1801,
      "illustrate": 1802,
      "themselves": 1803,
      "Austr": 1804,
      "Por": 1805,
      "bound": 1806,
      "eve": 1807,
      "fill": 1808,
      "four": 1809,
      "gland": 1810,
      "lines": 1811,
      "rich": 1812,
      "xim": 1813,
      "angiosper": 1814,
      "especi": 1815,
      "isol": 1816,
      "itu": 1817,
      "determ": 1818,
      "cop": 1819,
      "cost": 1820,
      "dif": 1821,
      "chants": 1822,
      "speed": 1823,
      "emer": 1824,
      "omen": 1825,
      "landscape": 1826,
      "simple": 1827,
      "smaller": 1828,
      "controll": 1829,
      "community": 1830,
      "pastoral": 1831,
      "reduced": 1832,
      "central": 1833,
      "necessary": 1834,
      "meteor": 1835,
      "especially": 1836,
      "determine": 1837,
      "Mars": 1838,
      "bri": 1839,
      "kilo": 1840,
      "ling": 1841,
      "mag": 1842,
      "non": 1843,
      "raz": 1844,
      "poten": 1845,
      "ains": 1846,
      "cloud": 1847,
      "hot": 1848,
      "whether": 1849,
      "therefore": 1850,
      "maintain": 1851,
      "given": 1852,
      "earliest": 1853,
      "experiment": 1854,
      "pottery": 1855,
      "resources": 1856,
      "outside": 1857,
      "Sumer": 1858,
      "ane": 1859,
      "aries": 1860,
      "ased": 1861,
      "least": 1862,
      "iting": 1863,
      "itself": 1864,
      "mechan": 1865,
      "dem": 1866,
      "moving": 1867,
      "places": 1868,
      "ously": 1869,
      "specific": 1870,
      "products": 1871,
      "typ": 1872,
      "audi": 1873,
      "solid": 1874,
      "flood": 1875,
      "extinctions": 1876,
      "surrounding": 1877,
      "taceous": 1878,
      "insects": 1879,
      "Cretaceous": 1880,
      "Braz": 1881,
      "aqu": 1882,
      "dam": 1883,
      "fav": 1884,
      "gae": 1885,
      "hu": 1886,
      "rac": 1887,
      "sand": 1888,
      "ured": 1889,
      "attr": 1890,
      "head": 1891,
      "images": 1892,
      "cere": 1893,
      "older": 1894,
      "rivers": 1895,
      "undred": 1896,
      "preser": 1897,
      "pressure": 1898,
      "factor": 1899,
      "results": 1900,
      "allowed": 1901,
      "original": 1902,
      "film": 1903,
      "individuals": 1904,
      "kinds": 1905,
      "eventually": 1906,
      "political": 1907,
      "happen": 1908,
      "Portu": 1909,
      "Brazil": 1910,
      "Is": 1911,
      "hundred": 1912,
      "thus": 1913,
      "tici": 1914,
      "itary": 1915,
      "acy": 1916,
      "see": 1917,
      "seas": 1918,
      "season": 1919,
      "dev": 1920,
      "soph": 1921,
      "tered": 1922,
      "advert": 1923,
      "clus": 1924,
      "faces": 1925,
      "gene": 1926,
      "ideas": 1927,
      "gradu": 1928,
      "ject": 1929,
      "dramat": 1930,
      "country": 1931,
      "purpose": 1932,
      "identify": 1933,
      "langu": 1934,
      "architecture": 1935,
      "Africa": 1936,
      "behavior": 1937,
      "yawning": 1938,
      "Paleolithic": 1939,
      "recogn": 1940,
      "Austral": 1941,
      "Ger": 1942,
      "dr": 1943,
      "nes": 1944,
      "oth": 1945,
      "sity": 1946,
      "aled": 1947,
      "algae": 1948,
      "consequ": 1949,
      "concentr": 1950,
      "died": 1951,
      "tect": 1952,
      "liqu": 1953,
      "ounts": 1954,
      "centers": 1955,
      "buted": 1956,
      "strate": 1957,
      "ologists": 1958,
      "sym": 1959,
      "better": 1960,
      "expand": 1961,
      "provides": 1962,
      "plank": 1963,
      "affected": 1964,
      "primarily": 1965,
      "England": 1966,
      "resistant": 1967,
      "competition": 1968,
      "eggs": 1969,
      "explanation": 1970,
      "100": 1971,
      "Even": 1972,
      "Pl": 1973,
      "Re": 1974,
      "ior": 1975,
      "vations": 1976,
      "wild": 1977,
      "independ": 1978,
      "rele": 1979,
      "ash": 1980,
      "astic": 1981,
      "demon": 1982,
      "mole": 1983,
      "ansion": 1984,
      "avy": 1985,
      "discovered": 1986,
      "stry": 1987,
      "differences": 1988,
      "occurs": 1989,
      "distin": 1990,
      "effective": 1991,
      "extinct": 1992,
      "dense": 1993,
      "succession": 1994,
      "industry": 1995,
      "volcanic": 1996,
      "films": 1997,
      "seems": 1998,
      "nutrients": 1999,
      "Britain": 2000,
      "princi": 2001,
      "Meso": 2002,
      "tropical": 2003,
      "southern": 2004,
      "kilometers": 2005,
      "plankton": 2006,
      "io": 2007,
      "ier": 2008,
      "my": 2009,
      "pin": 2010,
      "sw": 2011,
      "estim": 2012,
      "titu": 2013,
      "stor": 2014,
      "expe": 2015,
      "exchange": 2016,
      "ush": 2017,
      "Indi": 2018,
      "manu": 2019,
      "nature": 2020,
      "color": 2021,
      "valu": 2022,
      "successful": 2023,
      "described": 2024,
      "particularly": 2025,
      "ception": 2026,
      "problems": 2027,
      "introduced": 2028,
      "absor": 2029,
      "construction": 2030,
      "Mar": 2031,
      "Po": 2032,
      "fs": 2033,
      "sil": 2034,
      "sci": 2035,
      "enced": 2036,
      "tom": 2037,
      "loo": 2038,
      "super": 2039,
      "modi": 2040,
      "whose": 2041,
      "never": 2042,
      "tend": 2043,
      "prec": 2044,
      "producing": 2045,
      "green": 2046,
      "works": 2047,
      "continental": 2048,
      "rane": 2049,
      "inese": 2050,
      "Chinese": 2051,
      "northern": 2052,
      "farming": 2053,
      "More": 2054,
      "believe": 2055,
      "economy": 2056,
      "coastal": 2057,
      "electric": 2058,
      "involved": 2059,
      "internal": 2060,
      "adapt": 2061,
      "properties": 2062,
      "paper": 2063,
      "OT": 2064,
      "bul": 2065,
      "brain": 2066,
      "ips": 2067,
      "lakes": 2068,
      "ske": 2069,
      "tissu": 2070,
      "instru": 2071,
      "ann": 2072,
      "att": 2073,
      "atus": 2074,
      "ero": 2075,
      "asion": 2076,
      "row": 2077,
      "itrogen": 2078,
      "reser": 2079,
      "adults": 2080,
      "ries": 2081,
      "domes": 2082,
      "merchants": 2083,
      "rice": 2084,
      "locations": 2085,
      "scale": 2086,
      "crop": 2087,
      "sett": 2088,
      "movements": 2089,
      "expansion": 2090,
      "studies": 2091,
      "structures": 2092,
      "awa": 2093,
      "oxide": 2094,
      "sources": 2095,
      "improve": 2096,
      "discussion": 2097,
      "volcanoes": 2098,
      "features": 2099,
      "either": 2100,
      "manufact": 2101,
      "domestic": 2102,
      "Vene": 2103,
      "ware": 2104,
      "anc": 2105,
      "rece": 2106,
      "let": 2107,
      "moa": 2108,
      "const": 2109,
      "phen": 2110,
      "plies": 2111,
      "perhaps": 2112,
      "soon": 2113,
      "lies": 2114,
      "causes": 2115,
      "shif": 2116,
      "highly": 2117,
      "ards": 2118,
      "obtain": 2119,
      "appeared": 2120,
      "suggested": 2121,
      "practic": 2122,
      "affect": 2123,
      "hib": 2124,
      "appearance": 2125,
      "frequently": 2126,
      "writing": 2127,
      "walls": 2128,
      "adi": 2129,
      "ey": 2130,
      "fine": 2131,
      "ns": 2132,
      "night": 2133,
      "pit": 2134,
      "atten": 2135,
      "heavy": 2136,
      "forts": 2137,
      "dioxide": 2138,
      "teeth": 2139,
      "amph": 2140,
      "compar": 2141,
      "ades": 2142,
      "key": 2143,
      "ctions": 2144,
      "apparent": 2145,
      "infant": 2146,
      "visual": 2147,
      "north": 2148,
      "possib": 2149,
      "including": 2150,
      "continued": 2151,
      "planet": 2152,
      "researchers": 2153,
      "influence": 2154,
      "additional": 2155,
      "deposits": 2156,
      "understanding": 2157,
      "selection": 2158,
      "established": 2159,
      "methods": 2160,
      "dou": 2161,
      "hind": 2162,
      "lin": 2163,
      "ler": 2164,
      "line": 2165,
      "labor": 2166,
      "mul": 2167,
      "vir": 2168,
      "ini": 2169,
      "reve": 2170,
      "return": 2171,
      "icted": 2172,
      "held": 2173,
      "ches": 2174,
      "imin": 2175,
      "bot": 2176,
      "grain": 2177,
      "centuries": 2178,
      "bio": 2179,
      "biological": 2180,
      "charged": 2181,
      "processes": 2182,
      "histor": 2183,
      "shell": 2184,
      "cultural": 2185,
      "archaeological": 2186,
      "geologic": 2187,
      "dominant": 2188,
      "settlement": 2189,
      "publ": 2190,
      "channels": 2191,
      "phenomen": 2192,
      "16": 2193,
      "17": 2194,
      "El": 2195,
      "Middle": 2196,
      "cut": 2197,
      "count": 2198,
      "ever": 2199,
      "fa": 2200,
      "fail": 2201,
      "further": 2202,
      "hor": 2203,
      "nitrogen": 2204,
      "rid": 2205,
      "rass": 2206,
      "sch": 2207,
      "spo": 2208,
      "spr": 2209,
      "thick": 2210,
      "sem": 2211,
      "mel": 2212,
      "ordin": 2213,
      "portion": 2214,
      "prising": 2215,
      "cheap": 2216,
      "predict": 2217,
      "examples": 2218,
      "layer": 2219,
      "palaces": 2220,
      "crater": 2221,
      "responsi": 2222,
      "currents": 2223,
      "military": 2224,
      "person": 2225,
      "freezing": 2226,
      "decline": 2227,
      "reliable": 2228,
      "daily": 2229,
      "huge": 2230,
      "racco": 2231,
      "gradually": 2232,
      "20": 2233,
      "500": 2234,
      "Rom": 2235,
      "east": 2236,
      "glo": 2237,
      "hal": 2238,
      "lat": 2239,
      "ption": 2240,
      "pie": 2241,
      "rural": 2242,
      "ta": 2243,
      "tox": 2244,
      "seen": 2245,
      "motion": 2246,
      "expen": 2247,
      "neg": 2248,
      "istr": 2249,
      "ava": 2250,
      "ships": 2251,
      "increases": 2252,
      "coral": 2253,
      "carry": 2254,
      "underground": 2255,
      "numer": 2256,
      "sediments": 2257,
      "stead": 2258,
      "cules": 2259,
      "indicates": 2260,
      "members": 2261,
      "herd": 2262,
      "streams": 2263,
      "sense": 2264,
      "widely": 2265,
      "ready": 2266,
      "abundant": 2267,
      "characteristics": 2268,
      "cases": 2269,
      "camera": 2270,
      "angiosperms": 2271,
      "potential": 2272,
      "molecules": 2273,
      "30": 2274,
      "Ze": 2275,
      "apor": 2276,
      "bus": 2277,
      "give": 2278,
      "ned": 2279,
      "tong": 2280,
      "vast": 2281,
      "atory": 2282,
      "oft": 2283,
      "ised": 2284,
      "tile": 2285,
      "tific": 2286,
      "outer": 2287,
      "lot": 2288,
      "sufficient": 2289,
      "moths": 2290,
      "irrig": 2291,
      "portun": 2292,
      "popular": 2293,
      "climatic": 2294,
      "environments": 2295,
      "vision": 2296,
      "ield": 2297,
      "remained": 2298,
      "acteria": 2299,
      "positive": 2300,
      "environmental": 2301,
      "voir": 2302,
      "palace": 2303,
      "associated": 2304,
      "third": 2305,
      "railroads": 2306,
      "books": 2307,
      "civilization": 2308,
      "thousands": 2309,
      "reservoir": 2310,
      "ancest": 2311,
      "countries": 2312,
      "Am": 2313,
      "Hawa": 2314,
      "care": 2315,
      "fed": 2316,
      "gres": 2317,
      "hour": 2318,
      "ibi": 2319,
      "ron": 2320,
      "taken": 2321,
      "ination": 2322,
      "erup": 2323,
      "encour": 2324,
      "stars": 2325,
      "begg": 2326,
      "deed": 2327,
      "ilities": 2328,
      "force": 2329,
      "immedi": 2330,
      "conside": 2331,
      "poin": 2332,
      "resh": 2333,
      "amounts": 2334,
      "net": 2335,
      "six": 2336,
      "kept": 2337,
      "grown": 2338,
      "center": 2339,
      "Ital": 2340,
      "avoid": 2341,
      "preci": 2342,
      "tempor": 2343,
      "fires": 2344,
      "vessel": 2345,
      "peoples": 2346,
      "element": 2347,
      "serious": 2348,
      "cycle": 2349,
      "survival": 2350,
      "memory": 2351,
      "opportun": 2352,
      "existed": 2353,
      "slowly": 2354,
      "phyto": 2355,
      "radiation": 2356,
      "Venice": 2357,
      "market": 2358,
      "glaciers": 2359,
      "beginning": 2360,
      "roots": 2361,
      "ranean": 2362,
      "constant": 2363,
      "Hawai": 2364,
      "considered": 2365,
      ".,": 2366,
      "De": 2367,
      "Ex": 2368,
      "Ge": 2369,
      "case": 2370,
      "harm": 2371,
      "ring": 2372,
      "soft": 2373,
      "tas": 2374,
      "vit": 2375,
      "repe": 2376,
      "removed": 2377,
      "aland": 2378,
      "although": 2379,
      "aspe": 2380,
      "town": 2381,
      "ander": 2382,
      "lear": 2383,
      "poor": 2384,
      "ays": 2385,
      "ights": 2386,
      "utes": 2387,
      "waters": 2388,
      "surprising": 2389,
      "wheel": 2390,
      "bution": 2391,
      "regular": 2392,
      "actually": 2393,
      "workers": 2394,
      "simply": 2395,
      "vention": 2396,
      "presented": 2397,
      "pestici": 2398,
      "depends": 2399,
      "describe": 2400,
      "liter": 2401,
      "practice": 2402,
      "atues": 2403,
      "Egypt": 2404,
      "mix": 2405,
      "crust": 2406,
      "favor": 2407,
      "Romans": 2408,
      "negative": 2409,
      "Zealand": 2410,
      "15": 2411,
      "Bering": 2412,
      "Co": 2413,
      "Its": 2414,
      "May": 2415,
      "fts": 2416,
      "fast": 2417,
      "hol": 2418,
      "nam": 2419,
      "pped": 2420,
      "ume": 2421,
      "zone": 2422,
      "revol": 2423,
      "restrial": 2424,
      "assu": 2425,
      "iter": 2426,
      "access": 2427,
      "cot": 2428,
      "concer": 2429,
      "extra": 2430,
      "aving": 2431,
      "prevent": 2432,
      "genes": 2433,
      "difference": 2434,
      "organism": 2435,
      "roleum": 2436,
      "electr": 2437,
      "extensive": 2438,
      "engine": 2439,
      "improved": 2440,
      "international": 2441,
      "blood": 2442,
      "desert": 2443,
      "relationship": 2444,
      "pinyon": 2445,
      "attention": 2446,
      "multi": 2447,
      "ibians": 2448,
      "begging": 2449,
      "60": 2450,
      "Med": 2451,
      "No": 2452,
      "Nava": 2453,
      "West": 2454,
      "big": 2455,
      "bacteria": 2456,
      "ived": 2457,
      "ken": 2458,
      "next": 2459,
      "tur": 2460,
      "inst": 2461,
      "theater": 2462,
      "theories": 2463,
      "ond": 2464,
      "ency": 2465,
      "offic": 2466,
      "status": 2467,
      "meter": 2468,
      "def": 2469,
      "moist": 2470,
      "wealth": 2471,
      "terrestrial": 2472,
      "philo": 2473,
      "having": 2474,
      "lives": 2475,
      "geograph": 2476,
      "ried": 2477,
      "izing": 2478,
      "entific": 2479,
      "prefer": 2480,
      "serve": 2481,
      "generated": 2482,
      "distance": 2483,
      "whole": 2484,
      "shows": 2485,
      "showed": 2486,
      "contained": 2487,
      "describes": 2488,
      "records": 2489,
      "glacial": 2490,
      "culture": 2491,
      "invest": 2492,
      "completely": 2493,
      "demand": 2494,
      "Navajo": 2495,
      "14": 2496,
      "Col": 2497,
      "NOT": 2498,
      "Ver": 2499,
      "bs": 2500,
      "eat": 2501,
      "fresh": 2502,
      "la": 2503,
      "test": 2504,
      "replaced": 2505,
      "total": 2506,
      "tially": 2507,
      "leys": 2508,
      "stability": 2509,
      "lost": 2510,
      "loss": 2511,
      "acted": 2512,
      "aging": 2513,
      "rable": 2514,
      "ils": 2515,
      "ceed": 2516,
      "abol": 2517,
      "urally": 2518,
      "pet": 2519,
      "white": 2520,
      "plied": 2521,
      "cting": 2522,
      "evapor": 2523,
      "pression": 2524,
      "surfaces": 2525,
      "poses": 2526,
      "grew": 2527,
      "volume": 2528,
      "interior": 2529,
      "general": 2530,
      "supported": 2531,
      "ledge": 2532,
      "floor": 2533,
      "Forbes": 2534,
      "vores": 2535,
      "draw": 2536,
      "reached": 2537,
      "nutrient": 2538,
      "British": 2539,
      "approach": 2540,
      "rubs": 2541,
      "Egyp": 2542,
      "snakes": 2543,
      "becomes": 2544,
      "photograph": 2545,
      "tailed": 2546,
      "quantities": 2547,
      "controlled": 2548,
      "Sumerian": 2549,
      "typically": 2550,
      "preserved": 2551,
      "vessels": 2552,
      "iterranean": 2553,
      "Mediterranean": 2554,
      "Ano": 2555,
      "Li": 2556,
      "Natu": 2557,
      "Oce": 2558,
      "bol": 2559,
      "data": 2560,
      "hold": 2561,
      "pra": 2562,
      "pper": 2563,
      "ang": 2564,
      "ende": 2565,
      "orm": 2566,
      "astern": 2567,
      "ison": 2568,
      "death": 2569,
      "suitable": 2570,
      "wet": 2571,
      "olars": 2572,
      "paragraphs": 2573,
      "eval": 2574,
      "due": 2575,
      "lling": 2576,
      "create": 2577,
      "entieth": 2578,
      "saw": 2579,
      "ministr": 2580,
      "ologist": 2581,
      "organization": 2582,
      "carried": 2583,
      "refers": 2584,
      "communic": 2585,
      "shaped": 2586,
      "capable": 2587,
      "think": 2588,
      "music": 2589,
      "twentieth": 2590,
      "villages": 2591,
      "aquif": 2592,
      "expected": 2593,
      "precise": 2594,
      "erosion": 2595,
      "Venetian": 2596,
      "phenomenon": 2597,
      "half": 2598,
      "irrigation": 2599,
      "Natufi": 2600,
      "12": 2601,
      "Com": 2602,
      "beds": 2603,
      "burn": 2604,
      "barri": 2605,
      "fu": 2606,
      "fund": 2607,
      "iar": 2608,
      "ires": 2609,
      "lle": 2610,
      "lings": 2611,
      "mas": 2612,
      "mach": 2613,
      "pict": 2614,
      "sam": 2615,
      "squ": 2616,
      "win": 2617,
      "yet": 2618,
      "inside": 2619,
      "inhabit": 2620,
      "edu": 2621,
      "stable": 2622,
      "story": 2623,
      "behind": 2624,
      "defin": 2625,
      "agrass": 2626,
      "rainf": 2627,
      "imen": 2628,
      "image": 2629,
      "exhib": 2630,
      "unable": 2631,
      "neigh": 2632,
      "needs": 2633,
      "cave": 2634,
      "earth": 2635,
      "changing": 2636,
      "makes": 2637,
      "spect": 2638,
      "presents": 2639,
      "While": 2640,
      "syn": 2641,
      "obvious": 2642,
      "serv": 2643,
      "signs": 2644,
      "groundwater": 2645,
      "Rome": 2646,
      "helped": 2647,
      "contains": 2648,
      "difficul": 2649,
      "Anax": 2650,
      "shown": 2651,
      "observed": 2652,
      "carbonate": 2653,
      "habitats": 2654,
      "extended": 2655,
      "increasingly": 2656,
      "experience": 2657,
      "establish": 2658,
      "destro": 2659,
      "abundance": 2660,
      "separate": 2661,
      "teachers": 2662,
      "hydrogen": 2663,
      "figures": 2664,
      "cattle": 2665,
      "isolated": 2666,
      "audience": 2667,
      "hundreds": 2668,
      "recognized": 2669,
      "practices": 2670,
      "revolution": 2671,
      "rainfall": 2672,
      "Bt": 2673,
      "During": 2674,
      "Great": 2675,
      "Jo": 2676,
      "Sm": 2677,
      "dden": 2678,
      "hou": 2679,
      "nav": 2680,
      "situ": 2681,
      "wers": 2682,
      "rep": 2683,
      "reas": 2684,
      "atom": 2685,
      "already": 2686,
      "ingu": 2687,
      "statues": 2688,
      "acts": 2689,
      "cope": 2690,
      "coll": 2691,
      "proposed": 2692,
      "ams": 2693,
      "administr": 2694,
      "umes": 2695,
      "host": 2696,
      "logists": 2697,
      "ounds": 2698,
      "obsc": 2699,
      "else": 2700,
      "periodic": 2701,
      "mainly": 2702,
      "marsh": 2703,
      "grains": 2704,
      "black": 2705,
      "ceram": 2706,
      "basic": 2707,
      "hunters": 2708,
      "questions": 2709,
      "member": 2710,
      "continue": 2711,
      "skills": 2712,
      "practical": 2713,
      "recorded": 2714,
      "gases": 2715,
      "grasses": 2716,
      "migration": 2717,
      "physi": 2718,
      "rulers": 2719,
      "buried": 2720,
      "Such": 2721,
      "benefit": 2722,
      "traditional": 2723,
      "crystals": 2724,
      "dramatic": 2725,
      "scientific": 2726,
      "public": 2727,
      "spring": 2728,
      "responsible": 2729,
      "phytoplankton": 2730,
      "Ocean": 2731,
      "fuel": 2732,
      "\"?": 2733,
      "40": 2734,
      "Can": 2735,
      "Further": 2736,
      "Ri": 2737,
      "apart": 2738,
      "cand": 2739,
      "flowing": 2740,
      "him": 2741,
      "kens": 2742,
      "lers": 2743,
      "mit": 2744,
      "rs": 2745,
      "rat": 2746,
      "vin": 2747,
      "yield": 2748,
      "zo": 2749,
      "ened": 2750,
      "tokens": 2751,
      "ision": 2752,
      "stories": 2753,
      "heated": 2754,
      "enter": 2755,
      "secre": 2756,
      "sevent": 2757,
      "ares": 2758,
      "exposed": 2759,
      "utch": 2760,
      "trading": 2761,
      "shallow": 2762,
      "timber": 2763,
      "corn": 2764,
      "extent": 2765,
      "worked": 2766,
      "ffici": 2767,
      "distingu": 2768,
      "signal": 2769,
      "varied": 2770,
      "resulted": 2771,
      "bron": 2772,
      "compan": 2773,
      "usual": 2774,
      "skill": 2775,
      "metabol": 2776,
      "efforts": 2777,
      "knowledge": 2778,
      "feeding": 2779,
      "cells": 2780,
      "resource": 2781,
      "settlements": 2782,
      "destru": 2783,
      "stimulus": 2784,
      "mountains": 2785,
      "clocks": 2786,
      "families": 2787,
      "ceremon": 2788,
      "liquid": 2789,
      "tongue": 2790,
      "Another": 2791,
      "navig": 2792,
      "sevente": 2793,
      "Mino": 2794,
      "Sur": 2795,
      "Upper": 2796,
      "Wor": 2797,
      "Western": 2798,
      "bic": 2799,
      "bill": 2800,
      "eigh": 2801,
      "fut": 2802,
      "fru": 2803,
      "gain": 2804,
      "game": 2805,
      "law": 2806,
      "mut": 2807,
      "pite": 2808,
      "sess": 2809,
      "slight": 2810,
      "wave": 2811,
      "ying": 2812,
      "ining": 2813,
      "iness": 2814,
      "restr": 2815,
      "ato": 2816,
      "onto": 2817,
      "enorm": 2818,
      "tig": 2819,
      "tiles": 2820,
      "routes": 2821,
      "chall": 2822,
      "sudden": 2823,
      "weak": 2824,
      "weather": 2825,
      "condu": 2826,
      "extern": 2827,
      "proportion": 2828,
      "comes": 2829,
      "nect": 2830,
      "othermal": 2831,
      "useful": 2832,
      "tran": 2833,
      "track": 2834,
      "upper": 2835,
      "cks": 2836,
      "diseas": 2837,
      "orses": 2838,
      "developing": 2839,
      "ellow": 2840,
      "worksho": 2841,
      "sulf": 2842,
      "explains": 2843,
      "easy": 2844,
      "predator": 2845,
      "cross": 2846,
      "according": 2847,
      "base": 2848,
      "visible": 2849,
      "appears": 2850,
      "allows": 2851,
      "included": 2852,
      "memories": 2853,
      "metal": 2854,
      "counter": 2855,
      "family": 2856,
      "closely": 2857,
      "approxim": 2858,
      "adapted": 2859,
      "winds": 2860,
      "decades": 2861,
      "becoming": 2862,
      "style": 2863,
      "demonstr": 2864,
      "storage": 2865,
      "doub": 2866,
      "scholars": 2867,
      "points": 2868,
      "temporary": 2869,
      "philosoph": 2870,
      "prair": 2871,
      "house": 2872,
      "seventeenth": 2873,
      "Minoan": 2874,
      "future": 2875,
      "Both": 2876,
      "Con": 2877,
      "High": 2878,
      "bar": 2879,
      "broad": 2880,
      "five": 2881,
      "gest": 2882,
      "gave": 2883,
      "ka": 2884,
      "leng": 2885,
      "ming": 2886,
      "middle": 2887,
      "pts": 2888,
      "pine": 2889,
      "smo": 2890,
      "ura": 2891,
      "vary": 2892,
      "invent": 2893,
      "attem": 2894,
      "aristo": 2895,
      "decor": 2896,
      "detect": 2897,
      "raised": 2898,
      "ables": 2899,
      "mode": 2900,
      "weight": 2901,
      "conclus": 2902,
      "feren": 2903,
      "ads": 2904,
      "adult": 2905,
      "quite": 2906,
      "docu": 2907,
      "answer": 2908,
      "print": 2909,
      "cked": 2910,
      "strata": 2911,
      "supplies": 2912,
      "buck": 2913,
      "artz": 2914,
      "naturally": 2915,
      "soldi": 2916,
      "solved": 2917,
      "signals": 2918,
      "kingdo": 2919,
      "account": 2920,
      "containing": 2921,
      "hunter": 2922,
      "density": 2923,
      "flowering": 2924,
      "stored": 2925,
      "nearly": 2926,
      "significantly": 2927,
      "dependent": 2928,
      "course": 2929,
      "beneath": 2930,
      "evolutionary": 2931,
      "clearly": 2932,
      "contribu": 2933,
      "markets": 2934,
      "patterns": 2935,
      "previously": 2936,
      "filled": 2937,
      "genetic": 2938,
      "tissue": 2939,
      "amphibians": 2940,
      "virtu": 2941,
      "pieces": 2942,
      "Hawaii": 2943,
      "petroleum": 2944,
      "reasons": 2945,
      "obscura": 2946,
      "transi": 2947,
      "aristocr": 2948,
      "Ab": 2949,
      "Fro": 2950,
      "Memph": 2951,
      "Other": 2952,
      "aut": 2953,
      "hous": 2954,
      "lun": 2955,
      "lum": 2956,
      "mp": 2957,
      "male": 2958,
      "native": 2959,
      "tor": 2960,
      "wed": 2961,
      "iny": 2962,
      "inno": 2963,
      "anced": 2964,
      "stage": 2965,
      "height": 2966,
      "acci": 2967,
      "deal": 2968,
      "agree": 2969,
      "forked": 2970,
      "abilities": 2971,
      "exact": 2972,
      "diet": 2973,
      "perman": 2974,
      "price": 2975,
      "mostly": 2976,
      "disco": 2977,
      "display": 2978,
      "discover": 2979,
      "possess": 2980,
      "sail": 2981,
      "aking": 2982,
      "fif": 2983,
      "fix": 2984,
      "regard": 2985,
      "working": 2986,
      "interpre": 2987,
      "easier": 2988,
      "climax": 2989,
      "mentions": 2990,
      "birth": 2991,
      "finally": 2992,
      "flows": 2993,
      "powerful": 2994,
      "limit": 2995,
      "handed": 2996,
      "availability": 2997,
      "sequence": 2998,
      "potam": 2999,
      "sedimentary": 3000,
      "shapes": 3001,
      "capac": 3002,
      "reflection": 3003,
      "primary": 3004,
      "leading": 3005,
      "leaders": 3006,
      "discussed": 3007,
      "microorganisms": 3008,
      "depth": 3009,
      "cultivation": 3010,
      "followed": 3011,
      "extremely": 3012,
      "familiar": 3013,
      "performance": 3014,
      "substanti": 3015,
      "Portugu": 3016,
      "drill": 3017,
      "Mesopotam": 3018,
      "adily": 3019,
      "aquifer": 3020,
      "River": 3021,
      "enormous": 3022,
      "length": 3023,
      "Memphis": 3024,
      "Age": 3025,
      "Dar": 3026,
      "Fo": 3027,
      "Pro": 3028,
      "aver": 3029,
      "ban": 3030,
      "gans": 3031,
      "iod": 3032,
      "jays": 3033,
      "kill": 3034,
      "mid": 3035,
      "nastic": 3036,
      "pale": 3037,
      "vity": 3038,
      "want": 3039,
      "ali": 3040,
      "stren": 3041,
      "lored": 3042,
      "seagrass": 3043,
      "agu": 3044,
      "rad": 3045,
      "colored": 3046,
      "forces": 3047,
      "conclu": 3048,
      "poly": 3049,
      "pool": 3050,
      "ided": 3051,
      "amin": 3052,
      "liz": 3053,
      "lium": 3054,
      "fewer": 3055,
      "commodi": 3056,
      "via": 3057,
      "tric": 3058,
      "genic": 3059,
      "foreign": 3060,
      "route": 3061,
      "reefs": 3062,
      "artistic": 3063,
      "largely": 3064,
      "marked": 3065,
      "scri": 3066,
      "scales": 3067,
      "resulting": 3068,
      "normal": 3069,
      "belief": 3070,
      "complexity": 3071,
      "herds": 3072,
      "breed": 3073,
      "males": 3074,
      "observations": 3075,
      "introduction": 3076,
      "protection": 3077,
      "front": 3078,
      "technological": 3079,
      "combined": 3080,
      "miles": 3081,
      "rules": 3082,
      "yond": 3083,
      "channel": 3084,
      "circ": 3085,
      "operation": 3086,
      "craft": 3087,
      "ecological": 3088,
      "fortun": 3089,
      "differ": 3090,
      "mechanical": 3091,
      "languages": 3092,
      "Australia": 3093,
      "eye": 3094,
      "numerous": 3095,
      "hours": 3096,
      "assumed": 3097,
      "difficulty": 3098,
      "distinguish": 3099,
      "bronze": 3100,
      "challen": 3101,
      "transition": 3102,
      "Portuguese": 3103,
      "streng": 3104,
      "commodities": 3105,
      "65": 3106,
      "Each": 3107,
      "Fr": 3108,
      "Ice": 3109,
      "Spart": 3110,
      "Scand": 3111,
      "Water": 3112,
      "avi": 3113,
      "centi": 3114,
      "eper": 3115,
      "gall": 3116,
      "gence": 3117,
      "nic": 3118,
      "pines": 3119,
      "push": 3120,
      "tex": 3121,
      "tus": 3122,
      "went": 3123,
      "you": 3124,
      "yellow": 3125,
      "thro": 3126,
      "theless": 3127,
      "organs": 3128,
      "lex": 3129,
      "acting": 3130,
      "beyond": 3131,
      "rarely": 3132,
      "ched": 3133,
      "ching": 3134,
      "sus": 3135,
      "terms": 3136,
      "proje": 3137,
      "geological": 3138,
      "complic": 3139,
      "waste": 3140,
      "mental": 3141,
      "quartz": 3142,
      "umin": 3143,
      "produc": 3144,
      "psy": 3145,
      "auto": 3146,
      "elite": 3147,
      "commonly": 3148,
      "actors": 3149,
      "whereas": 3150,
      "generation": 3151,
      "occurring": 3152,
      "distant": 3153,
      "sions": 3154,
      "translocation": 3155,
      "transgenic": 3156,
      "Americans": 3157,
      "valleys": 3158,
      "millen": 3159,
      "argued": 3160,
      "compared": 3161,
      "planets": 3162,
      "certainly": 3163,
      "existence": 3164,
      "50s": 3165,
      "drift": 3166,
      "protected": 3167,
      "fields": 3168,
      "written": 3169,
      "Venus": 3170,
      "warmer": 3171,
      "designed": 3172,
      "accurately": 3173,
      "distribution": 3174,
      "diff": 3175,
      "meteorites": 3176,
      "Portugal": 3177,
      "countryside": 3178,
      "language": 3179,
      "released": 3180,
      "valuable": 3181,
      "Martian": 3182,
      "raccoons": 3183,
      "aspects": 3184,
      "synthe": 3185,
      "physiological": 3186,
      "eighteenth": 3187,
      "external": 3188,
      "demonstrated": 3189,
      "soldiers": 3190,
      "From": 3191,
      "discovery": 3192,
      "capacity": 3193,
      "Scandina": 3194,
      ",\"": 3195,
      "25": 3196,
      "Athen": 3197,
      "Cle": 3198,
      "Fir": 3199,
      "Mid": 3200,
      "dan": 3201,
      "date": 3202,
      "dating": 3203,
      "ga": 3204,
      "mally": 3205,
      "wides": 3206,
      "instead": 3207,
      "theast": 3208,
      "ana": 3209,
      "remark": 3210,
      "reactions": 3211,
      "remember": 3212,
      "eric": 3213,
      "arid": 3214,
      "tit": 3215,
      "root": 3216,
      "iction": 3217,
      "ital": 3218,
      "ster": 3219,
      "step": 3220,
      "stages": 3221,
      "hear": 3222,
      "heavi": 3223,
      "deb": 3224,
      "moth": 3225,
      "conf": 3226,
      "consu": 3227,
      "una": 3228,
      "plain": 3229,
      "plates": 3230,
      "cies": 3231,
      "cium": 3232,
      "respe": 3233,
      "ctu": 3234,
      "liber": 3235,
      "geothermal": 3236,
      "capt": 3237,
      "content": 3238,
      "Increas": 3239,
      "unders": 3240,
      "waterpower": 3241,
      "mak": 3242,
      "entire": 3243,
      "productive": 3244,
      "prices": 3245,
      "achi": 3246,
      "achie": 3247,
      "disper": 3248,
      "shar": 3249,
      "pulation": 3250,
      "spont": 3251,
      "vestig": 3252,
      "occasion": 3253,
      "lightning": 3254,
      "series": 3255,
      "flat": 3256,
      "colors": 3257,
      "value": 3258,
      "days": 3259,
      "aware": 3260,
      "limest": 3261,
      "argument": 3262,
      "grind": 3263,
      "nearby": 3264,
      "seemed": 3265,
      "ecosystem": 3266,
      "Once": 3267,
      "sensi": 3268,
      "geologists": 3269,
      "deposited": 3270,
      "identified": 3271,
      "specialized": 3272,
      "experienced": 3273,
      "book": 3274,
      "determined": 3275,
      "benefits": 3276,
      "directly": 3277,
      "rises": 3278,
      "aneous": 3279,
      "devices": 3280,
      "German": 3281,
      "Germany": 3282,
      "historical": 3283,
      "melting": 3284,
      "global": 3285,
      "towns": 3286,
      "moisture": 3287,
      "evaporation": 3288,
      "Egyptian": 3289,
      "exhibit": 3290,
      "Smith": 3291,
      "atomic": 3292,
      "elsewhere": 3293,
      "destruction": 3294,
      "doubt": 3295,
      "prairie": 3296,
      "Spartina": 3297,
      "First": 3298,
      "widespread": 3299,
      "achieve": 3300,
      "Cam": 3301,
      "Des": 3302,
      "Le": 3303,
      "Ma": 3304,
      "Mu": 3305,
      "Or": 3306,
      "Pe": 3307,
      "Sa": 3308,
      "bing": 3309,
      "cene": 3310,
      "equal": 3311,
      "jaw": 3312,
      "nia": 3313,
      "national": 3314,
      "pi": 3315,
      "ral": 3316,
      "shel": 3317,
      "tation": 3318,
      "ws": 3319,
      "wise": 3320,
      "zes": 3321,
      "ening": 3322,
      "encies": 3323,
      "ora": 3324,
      "orient": 3325,
      "allowing": 3326,
      "tos": 3327,
      "tood": 3328,
      "tians": 3329,
      "stones": 3330,
      "lose": 3331,
      "iles": 3332,
      "imit": 3333,
      "concept": 3334,
      "diverse": 3335,
      "proved": 3336,
      "progres": 3337,
      "perception": 3338,
      "tell": 3339,
      "added": 3340,
      "forming": 3341,
      "canals": 3342,
      "creation": 3343,
      "upon": 3344,
      "developments": 3345,
      "roughly": 3346,
      "mud": 3347,
      "spaces": 3348,
      "elimin": 3349,
      "regul": 3350,
      "carni": 3351,
      "explained": 3352,
      "refer": 3353,
      "subsequ": 3354,
      "mills": 3355,
      "months": 3356,
      "glish": 3357,
      "brid": 3358,
      "greatly": 3359,
      "providing": 3360,
      "continuous": 3361,
      "compete": 3362,
      "reducing": 3363,
      "response": 3364,
      "intensive": 3365,
      "sheets": 3366,
      "protect": 3367,
      "Only": 3368,
      "hips": 3369,
      "governments": 3370,
      "archaeologists": 3371,
      "shipping": 3372,
      "English": 3373,
      "summer": 3374,
      "studying": 3375,
      "colonization": 3376,
      "stimuli": 3377,
      "tropics": 3378,
      "fluctu": 3379,
      "ographical": 3380,
      "Arch": 3381,
      "profess": 3382,
      "measure": 3383,
      "cultivated": 3384,
      "hydro": 3385,
      "accurate": 3386,
      "connected": 3387,
      "pollen": 3388,
      "boundary": 3389,
      "copic": 3390,
      "costs": 3391,
      "emergence": 3392,
      "brian": 3393,
      "electricity": 3394,
      "adaptations": 3395,
      "domesticated": 3396,
      "apparently": 3397,
      "possibility": 3398,
      "revealed": 3399,
      "bottom": 3400,
      "shells": 3401,
      "positively": 3402,
      "preferred": 3403,
      "fundam": 3404,
      "inhabitants": 3405,
      "destroyed": 3406,
      "sulfur": 3407,
      "virtually": 3408,
      "lumber": 3409,
      "Mesopotamia": 3410,
      "Darwin": 3411,
      "average": 3412,
      "psych": 3413,
      "understood": 3414,
      "200": 3415,
      "300": 3416,
      "80": 3417,
      "Gu": 3418,
      "bly": 3419,
      "cred": 3420,
      "dit": 3421,
      "efficient": 3422,
      "fair": 3423,
      "gree": 3424,
      "horses": 3425,
      "mind": 3426,
      "nu": 3427,
      "nar": 3428,
      "ome": 3429,
      "rhy": 3430,
      "sat": 3431,
      "tall": 3432,
      "vest": 3433,
      "wr": 3434,
      "thri": 3435,
      "insul": 3436,
      "invention": 3437,
      "investig": 3438,
      "ature": 3439,
      "atives": 3440,
      "alone": 3441,
      "altern": 3442,
      "top": 3443,
      "toler": 3444,
      "accep": 3445,
      "seaf": 3446,
      "ione": 3447,
      "meant": 3448,
      "deeper": 3449,
      "degree": 3450,
      "chain": 3451,
      "forced": 3452,
      "cele": 3453,
      "unlikely": 3454,
      "territ": 3455,
      "progra": 3456,
      "plate": 3457,
      "pods": 3458,
      "perme": 3459,
      "liam": 3460,
      "coming": 3461,
      "usion": 3462,
      "dust": 3463,
      "tics": 3464,
      "izations": 3465,
      "largest": 3466,
      "overall": 3467,
      "wheat": 3468,
      "ology": 3469,
      "Early": 3470,
      "simult": 3471,
      "solu": 3472,
      "ritual": 3473,
      "floral": 3474,
      "transformed": 3475,
      "Americas": 3476,
      "consists": 3477,
      "ysis": 3478,
      "steel": 3479,
      "199": 3480,
      "seawater": 3481,
      "bring": 3482,
      "Unlike": 3483,
      "oppos": 3484,
      "originated": 3485,
      "qualities": 3486,
      "sky": 3487,
      "skin": 3488,
      "Greece": 3489,
      "calcium": 3490,
      "fungi": 3491,
      "shape": 3492,
      "purposes": 3493,
      "nestlings": 3494,
      "started": 3495,
      "resistance": 3496,
      "tablets": 3497,
      "contributed": 3498,
      "broken": 3499,
      "absence": 3500,
      "harvest": 3501,
      "snake": 3502,
      "born": 3503,
      "interested": 3504,
      "Sea": 3505,
      "photosynthe": 3506,
      "decrease": 3507,
      "aneously": 3508,
      "damage": 3509,
      "happened": 3510,
      "sophistic": 3511,
      "symbol": 3512,
      "Population": 3513,
      "manufacture": 3514,
      "ordinary": 3515,
      "toxic": 3516,
      "expensive": 3517,
      "pesticide": 3518,
      "favorable": 3519,
      "neighbor": 3520,
      "approximately": 3521,
      "houses": 3522,
      "breeding": 3523,
      "circum": 3524,
      "achieved": 3525,
      ".)": 3526,
      "Farm": 3527,
      "Hum": 3528,
      "Im": 3529,
      "Lake": 3530,
      "Me": 3531,
      "Mex": 3532,
      "Native": 3533,
      "Of": 3534,
      "Over": 3535,
      "Ple": 3536,
      "Uru": 3537,
      "Where": 3538,
      "eating": 3539,
      "mouth": 3540,
      "plot": 3541,
      "tes": 3542,
      "vul": 3543,
      "zones": 3544,
      "threat": 3545,
      "inner": 3546,
      "remo": 3547,
      "asts": 3548,
      "icals": 3549,
      "leather": 3550,
      "health": 3551,
      "helium": 3552,
      "vere": 3553,
      "dead": 3554,
      "defic": 3555,
      "raw": 3556,
      "peas": 3557,
      "conqu": 3558,
      "pots": 3559,
      "composed": 3560,
      "ado": 3561,
      "adop": 3562,
      "passed": 3563,
      "answers": 3564,
      "avage": 3565,
      "00s": 3566,
      "corals": 3567,
      "span": 3568,
      "artis": 3569,
      "marks": 3570,
      "grazing": 3571,
      "continent": 3572,
      "biographical": 3573,
      "generate": 3574,
      "generations": 3575,
      "requires": 3576,
      "regional": 3577,
      "basis": 3578,
      "Europeans": 3579,
      "compounds": 3580,
      "farther": 3581,
      "competing": 3582,
      "Alas": 3583,
      "existing": 3584,
      "capital": 3585,
      "reflect": 3586,
      "After": 3587,
      "influenced": 3588,
      "contribut": 3589,
      "fluid": 3590,
      "represented": 3591,
      "industrialization": 3592,
      "relationships": 3593,
      "circul": 3594,
      "Period": 3595,
      "istocene": 3596,
      "considerable": 3597,
      "village": 3598,
      "styles": 3599,
      "pastoralism": 3600,
      "device": 3601,
      "nesia": 3602,
      "ashing": 3603,
      "skele": 3604,
      "shift": 3605,
      "linked": 3606,
      "cutting": 3607,
      "predictable": 3608,
      "business": 3609,
      "freshwater": 3610,
      "Joh": 3611,
      "ceramics": 3612,
      "Furthermore": 3613,
      "zoic": 3614,
      "accid": 3615,
      "permanent": 3616,
      "France": 3617,
      "danger": 3618,
      "limestone": 3619,
      "Cambrian": 3620,
      "Sahar": 3621,
      "rhyth": 3622,
      "circumst": 3623,
      "Mexic": 3624,
      "Pleistocene": 3625,
      "24": 3626,
      "Eastern": 3627,
      "Lar": 3628,
      "Nio": 3629,
      "Ogall": 3630,
      "Pan": 3631,
      "Sp": 3632,
      "Two": 3633,
      "Washing": 3634,
      "Yor": 3635,
      "cast": 3636,
      "dig": 3637,
      "ered": 3638,
      "jac": 3639,
      "jade": 3640,
      "nical": 3641,
      "path": 3642,
      "sin": 3643,
      "slo": 3644,
      "sso": 3645,
      "ture": 3646,
      "takes": 3647,
      "tax": 3648,
      "inev": 3649,
      "reed": 3650,
      "replace": 3651,
      "resem": 3652,
      "attri": 3653,
      "enh": 3654,
      "engra": 3655,
      "ended": 3656,
      "ala": 3657,
      "ises": 3658,
      "isms": 3659,
      "stra": 3660,
      "station": 3661,
      "vey": 3662,
      "beach": 3663,
      "imander": 3664,
      "motiv": 3665,
      "exca": 3666,
      "exception": 3667,
      "nom": 3668,
      "posure": 3669,
      "paras": 3670,
      "adjac": 3671,
      "ighter": 3672,
      "Indeed": 3673,
      "maxim": 3674,
      "product": 3675,
      "bodies": 3676,
      "authority": 3677,
      "distances": 3678,
      "flour": 3679,
      "transfer": 3680,
      "mature": 3681,
      "variations": 3682,
      "183": 3683,
      "Chic": 3684,
      "supporting": 3685,
      "hunt": 3686,
      "fertile": 3687,
      "standard": 3688,
      "finan": 3689,
      "final": 3690,
      "Under": 3691,
      "flowers": 3692,
      "survived": 3693,
      "Moon": 3694,
      "believ": 3695,
      "originally": 3696,
      "store": 3697,
      "herbi": 3698,
      "reduce": 3699,
      "calcul": 3700,
      "purch": 3701,
      "ecosystems": 3702,
      "opening": 3703,
      "intensity": 3704,
      "combination": 3705,
      "appropri": 3706,
      "dominated": 3707,
      "cues": 3708,
      "advantages": 3709,
      "printing": 3710,
      "Wegener": 3711,
      "experiences": 3712,
      "technique": 3713,
      "exploit": 3714,
      "African": 3715,
      "feature": 3716,
      "transportation": 3717,
      "analysis": 3718,
      "crystal": 3719,
      "occupied": 3720,
      "controlling": 3721,
      "meteorite": 3722,
      "advertise": 3723,
      "dramatically": 3724,
      "Australian": 3725,
      "consequences": 3726,
      "liquids": 3727,
      "independent": 3728,
      "demonstrate": 3729,
      "distinct": 3730,
      "principles": 3731,
      "estimate": 3732,
      "absorb": 3733,
      "settled": 3734,
      "settlers": 3735,
      "obtained": 3736,
      "ridges": 3737,
      "craters": 3738,
      "immediate": 3739,
      "opportunities": 3740,
      "repeated": 3741,
      "electrical": 3742,
      "photography": 3743,
      "picture": 3744,
      "defined": 3745,
      "Anaximander": 3746,
      "workshops": 3747,
      "document": 3748,
      "contribute": 3749,
      "lungs": 3750,
      "complicated": 3751,
      "Scandinavia": 3752,
      "toscope": 3753,
      "accepted": 3754,
      "sophisticated": 3755,
      "Uruk": 3756,
      "vulner": 3757,
      "artisans": 3758,
      "Ogallala": 3759,
      "York": 3760,
      "adjacent": 3761,
      "Ap": 3762,
      "Emp": 3763,
      "Iran": 3764,
      "Nile": 3765,
      "Sh": 3766,
      "bb": 3767,
      "bility": 3768,
      "dal": 3769,
      "dwell": 3770,
      "drop": 3771,
      "eps": 3772,
      "effici": 3773,
      "fit": 3774,
      "faster": 3775,
      "gods": 3776,
      "gather": 3777,
      "idi": 3778,
      "ified": 3779,
      "tar": 3780,
      "tiny": 3781,
      "indeed": 3782,
      "ert": 3783,
      "ony": 3784,
      "ases": 3785,
      "assem": 3786,
      "tition": 3787,
      "tidal": 3788,
      "leaf": 3789,
      "loor": 3790,
      "lots": 3791,
      "deci": 3792,
      "rare": 3793,
      "rared": 3794,
      "sust": 3795,
      "impres": 3796,
      "movi": 3797,
      "model": 3798,
      "pelle": 3799,
      "conver": 3800,
      "extr": 3801,
      "notice": 3802,
      "pores": 3803,
      "percept": 3804,
      "cip": 3805,
      "residence": 3806,
      "teen": 3807,
      "team": 3808,
      "lime": 3809,
      "geome": 3810,
      "therlands": 3811,
      "feel": 3812,
      "ada": 3813,
      "quar": 3814,
      "quate": 3815,
      "formal": 3816,
      "focus": 3817,
      "chance": 3818,
      "tenden": 3819,
      "prev": 3820,
      "trapped": 3821,
      "share": 3822,
      "somewhat": 3823,
      "something": 3824,
      "velocity": 3825,
      "despite": 3826,
      "reef": 3827,
      "infrared": 3828,
      "organized": 3829,
      "elabor": 3830,
      "ification": 3831,
      "flas": 3832,
      "bles": 3833,
      "subs": 3834,
      "subjects": 3835,
      "cleavage": 3836,
      "helps": 3837,
      "standing": 3838,
      "successfully": 3839,
      "studied": 3840,
      "worlds": 3841,
      "origins": 3842,
      "dyn": 3843,
      "masses": 3844,
      "roads": 3845,
      "breath": 3846,
      "played": 3847,
      "viewed": 3848,
      "respond": 3849,
      "reaching": 3850,
      "nesting": 3851,
      "driven": 3852,
      "intense": 3853,
      "habitat": 3854,
      "fract": 3855,
      "finding": 3856,
      "frequency": 3857,
      "architectural": 3858,
      "explosion": 3859,
      "equip": 3860,
      "teaching": 3861,
      "Netherlands": 3862,
      "keeping": 3863,
      "depths": 3864,
      "collected": 3865,
      "accumulate": 3866,
      "quantity": 3867,
      "empire": 3868,
      "attract": 3869,
      "cereals": 3870,
      "seasonal": 3871,
      "Plains": 3872,
      "distinctive": 3873,
      "horse": 3874,
      "tification": 3875,
      "immediately": 3876,
      "sixteenth": 3877,
      "Italian": 3878,
      "Maya": 3879,
      "instance": 3880,
      "Verme": 3881,
      "situation": 3882,
      "ontologists": 3883,
      "nectar": 3884,
      "uminum": 3885,
      "productivity": 3886,
      "remarkable": 3887,
      "seafloor": 3888,
      "Alaska": 3889,
      "skeleton": 3890,
      "circumstances": 3891,
      "Washington": 3892,
      "perceptual": 3893,
      "tendency": 3894,
      "22": 3895,
      "Ad": 3896,
      "Bet": 3897,
      "His": 3898,
      "Lo": 3899,
      "Mill": 3900,
      "Mountain": 3901,
      "Si": 3902,
      "Sou": 3903,
      "Tra": 3904,
      "cil": 3905,
      "cular": 3906,
      "ium": 3907,
      "itive": 3908,
      "ios": 3909,
      "lind": 3910,
      "lighter": 3911,
      "ople": 3912,
      "pum": 3913,
      "sor": 3914,
      "sle": 3915,
      "say": 3916,
      "tles": 3917,
      "yal": 3918,
      "ynastic": 3919,
      "rein": 3920,
      "arrange": 3921,
      "artific": 3922,
      "asy": 3923,
      "lying": 3924,
      "accom": 3925,
      "acqu": 3926,
      "ional": 3927,
      "meat": 3928,
      "detail": 3929,
      "chant": 3930,
      "cetace": 3931,
      "mother": 3932,
      "construct": 3933,
      "convin": 3934,
      "contemporary": 3935,
      "whales": 3936,
      "except": 3937,
      "exposure": 3938,
      "prove": 3939,
      "promo": 3940,
      "versi": 3941,
      "ambi": 3942,
      "kel": 3943,
      "home": 3944,
      "specul": 3945,
      "creat": 3946,
      "creating": 3947,
      "rent": 3948,
      "applied": 3949,
      "strict": 3950,
      "pend": 3951,
      "relation": 3952,
      "ought": 3953,
      "bodied": 3954,
      "actual": 3955,
      "temperate": 3956,
      "full": 3957,
      "stems": 3958,
      "solution": 3959,
      "generating": 3960,
      "disturb": 3961,
      "flora": 3962,
      "humid": 3963,
      "predicted": 3964,
      "mata": 3965,
      "bled": 3966,
      "planting": 3967,
      "technical": 3968,
      "vised": 3969,
      "osity": 3970,
      "192": 3971,
      "197": 3972,
      "hunted": 3973,
      "normally": 3974,
      "chemicals": 3975,
      "bright": 3976,
      "includes": 3977,
      "stomata": 3978,
      "mammal": 3979,
      "reaches": 3980,
      "owned": 3981,
      "primitive": 3982,
      "fron": 3983,
      "cellular": 3984,
      "archaeologist": 3985,
      "lacked": 3986,
      "burial": 3987,
      "warbl": 3988,
      "musical": 3989,
      "equator": 3990,
      "arrived": 3991,
      "unique": 3992,
      "constructed": 3993,
      "cooled": 3994,
      "sunlight": 3995,
      "figur": 3996,
      "thousand": 3997,
      "distributed": 3998,
      "substances": 3999,
      "isolation": 4000,
      "audiences": 4001,
      "flooding": 4002,
      "Island": 4003,
      "consequence": 4004,
      "expanded": 4005,
      "principal": 4006,
      "attack": 4007,
      "initial": 4008,
      "latitu": 4009,
      "carefully": 4010,
      "encouraged": 4011,
      "opportunity": 4012,
      "negatively": 4013,
      "named": 4014,
      "Natufians": 4015,
      "Canada": 4016,
      "ceremonial": 4017,
      "World": 4018,
      "philosophers": 4019,
      "models": 4020,
      "kingdom": 4021,
      "autobiographical": 4022,
      "People": 4023,
      "subsequent": 4024,
      "neighboring": 4025,
      "Farmers": 4026,
      "Chicago": 4027,
      "geometric": 4028,
      "Clo": 4029,
      "Mic": 4030,
      "Mende": 4031,
      "Scientists": 4032,
      "Since": 4033,
      "Whe": 4034,
      "Wil": 4035,
      "drought": 4036,
      "irable": 4037,
      "list": 4038,
      "name": 4039,
      "oids": 4040,
      "pay": 4041,
      "sl": 4042,
      "scar": 4043,
      "scopic": 4044,
      "text": 4045,
      "uti": 4046,
      "uation": 4047,
      "vable": 4048,
      "varies": 4049,
      "wa": 4050,
      "zers": 4051,
      "ante": 4052,
      "onic": 4053,
      "oran": 4054,
      "altered": 4055,
      "aluminum": 4056,
      "tool": 4057,
      "tock": 4058,
      "tiz": 4059,
      "room": 4060,
      "andon": 4061,
      "icks": 4062,
      "legs": 4063,
      "stay": 4064,
      "start": 4065,
      "entally": 4066,
      "entary": 4067,
      "sealed": 4068,
      "ilit": 4069,
      "chond": 4070,
      "ford": 4071,
      "imag": 4072,
      "imals": 4073,
      "cel": 4074,
      "abled": 4075,
      "wered": 4076,
      "pered": 4077,
      "confir": 4078,
      "units": 4079,
      "ull": 4080,
      "phos": 4081,
      "nothing": 4082,
      "permit": 4083,
      "citiz": 4084,
      "tetra": 4085,
      "lowlands": 4086,
      "feet": 4087,
      "wash": 4088,
      "odes": 4089,
      "former": 4090,
      "ght": 4091,
      "ported": 4092,
      "portra": 4093,
      "waterwheel": 4094,
      "facilit": 4095,
      "manage": 4096,
      "entirely": 4097,
      "produces": 4098,
      "highlands": 4099,
      "Then": 4100,
      "imported": 4101,
      "ideal": 4102,
      "audit": 4103,
      "ario": 4104,
      "spices": 4105,
      "actor": 4106,
      "gravity": 4107,
      "grazers": 4108,
      "rites": 4109,
      "rituals": 4110,
      "derived": 4111,
      "scra": 4112,
      "partly": 4113,
      "basins": 4114,
      "planted": 4115,
      "Chan": 4116,
      "giant": 4117,
      "visit": 4118,
      "glass": 4119,
      "cylind": 4120,
      "chemist": 4121,
      "greatest": 4122,
      "positions": 4123,
      "calls": 4124,
      "nium": 4125,
      "stock": 4126,
      "bones": 4127,
      "massive": 4128,
      "filter": 4129,
      "ceptions": 4130,
      "tried": 4131,
      "tribes": 4132,
      "effort": 4133,
      "involve": 4134,
      "sumption": 4135,
      "prior": 4136,
      "radio": 4137,
      "behaviors": 4138,
      "association": 4139,
      "decay": 4140,
      "recently": 4141,
      "separated": 4142,
      "universe": 4143,
      "leyev": 4144,
      "measured": 4145,
      "delta": 4146,
      "method": 4147,
      "decreased": 4148,
      "emplo": 4149,
      "occupy": 4150,
      "emerged": 4151,
      "typical": 4152,
      "advertising": 4153,
      "nests": 4154,
      "silic": 4155,
      "adaptation": 4156,
      "instruments": 4157,
      "possibly": 4158,
      "fauna": 4159,
      "raccoon": 4160,
      "Beringia": 4161,
      "extrafloral": 4162,
      "electrons": 4163,
      "turtles": 4164,
      "defend": 4165,
      "investment": 4166,
      "burning": 4167,
      "barriers": 4168,
      "billion": 4169,
      "fruit": 4170,
      "suddenly": 4171,
      "wanted": 4172,
      "fortunately": 4173,
      "strength": 4174,
      "millennium": 4175,
      "makers": 4176,
      "credit": 4177,
      "program": 4178,
      "opposite": 4179,
      "leatherback": 4180,
      "adopted": 4181,
      "Sahara": 4182,
      "Mexico": 4183,
      "engraving": 4184,
      "nomad": 4185,
      "appropriate": 4186,
      "gathering": 4187,
      "sustain": 4188,
      "flasks": 4189,
      "Between": 4190,
      "arrangement": 4191,
      "1920s": 4192,
      "Mendeleyev": 4193,
      "auditory": 4194,
      ".\"": 4195,
      "Ae": 4196,
      "Cali": 4197,
      "dro": 4198,
      "done": 4199,
      "dimen": 4200,
      "gard": 4201,
      "hare": 4202,
      "mor": 4203,
      "mun": 4204,
      "mant": 4205,
      "mone": 4206,
      "none": 4207,
      "ptions": 4208,
      "ppers": 4209,
      "sph": 4210,
      "sper": 4211,
      "spot": 4212,
      "silt": 4213,
      "taking": 4214,
      "van": 4215,
      "vic": 4216,
      "things": 4217,
      "retain": 4218,
      "onom": 4219,
      "envelo": 4220,
      "enjo": 4221,
      "enabled": 4222,
      "leg": 4223,
      "leaving": 4224,
      "accompan": 4225,
      "beaut": 4226,
      "meet": 4227,
      "rabb": 4228,
      "coal": 4229,
      "cooperation": 4230,
      "cereal": 4231,
      "abandon": 4232,
      "wee": 4233,
      "weed": 4234,
      "ury": 4235,
      "urch": 4236,
      "conser": 4237,
      "exceed": 4238,
      "unlike": 4239,
      "unless": 4240,
      "unusual": 4241,
      "dian": 4242,
      "diame": 4243,
      "division": 4244,
      "plains": 4245,
      "ident": 4246,
      "gean": 4247,
      "cau": 4248,
      "antasy": 4249,
      "porcel": 4250,
      "clutch": 4251,
      "contamin": 4252,
      "viol": 4253,
      "preferen": 4254,
      "upward": 4255,
      "highest": 4256,
      "merchant": 4257,
      "perior": 4258,
      "ishing": 4259,
      "grows": 4260,
      "factory": 4261,
      "served": 4262,
      "sold": 4263,
      "epis": 4264,
      "transformation": 4265,
      "scat": 4266,
      "blue": 4267,
      "climates": 4268,
      "setting": 4269,
      "subject": 4270,
      "critical": 4271,
      "194": 4272,
      "cycles": 4273,
      "ponents": 4274,
      "treated": 4275,
      "striking": 4276,
      "ctively": 4277,
      "chemists": 4278,
      "bris": 4279,
      "compare": 4280,
      "termites": 4281,
      "significance": 4282,
      "reduction": 4283,
      "majority": 4284,
      "drawn": 4285,
      "courts": 4286,
      "metals": 4287,
      "famous": 4288,
      "realistic": 4289,
      "intensi": 4290,
      "begun": 4291,
      "begins": 4292,
      "frequent": 4293,
      "deposit": 4294,
      "parents": 4295,
      "declined": 4296,
      "fluids": 4297,
      "deserts": 4298,
      "thirteenth": 4299,
      "functions": 4300,
      "Never": 4301,
      "asteroid": 4302,
      "uniform": 4303,
      "currently": 4304,
      "Perhaps": 4305,
      "cooling": 4306,
      "civilizations": 4307,
      "determining": 4308,
      "considerably": 4309,
      "analy": 4310,
      "attractive": 4311,
      "independently": 4312,
      "effectively": 4313,
      "absorbed": 4314,
      "Moreover": 4315,
      "tissues": 4316,
      "annual": 4317,
      "improvement": 4318,
      "initially": 4319,
      "personal": 4320,
      "carrying": 4321,
      "ancestors": 4322,
      "learn": 4323,
      "surprisingly": 4324,
      "pesticides": 4325,
      "mixture": 4326,
      "turtle": 4327,
      "defen": 4328,
      "drawing": 4329,
      "Like": 4330,
      "Natufian": 4331,
      "barrier": 4332,
      "samples": 4333,
      "administrative": 4334,
      "restricted": 4335,
      "countercurrent": 4336,
      "smooth": 4337,
      "innovation": 4338,
      "discoveries": 4339,
      "drilling": 4340,
      "aguar": 4341,
      "Midwest": 4342,
      "spontaneous": 4343,
      "grinding": 4344,
      "carnivores": 4345,
      "fundamental": 4346,
      "ioneer": 4347,
      "John": 4348,
      "advertisements": 4349,
      "pellets": 4350,
      "equipment": 4351,
      "Miller": 4352,
      "cetaceans": 4353,
      "creatures": 4354,
      "Whether": 4355,
      "William": 4356,
      "tetrapods": 4357,
      "Aegean": 4358,
      "Califor": 4359,
      "beauty": 4360,
      "conservation": 4361,
      "diameter": 4362,
      "13": 4363,
      "70": 4364,
      "Cer": 4365,
      "Clar": 4366,
      "Den": 4367,
      "Evid": 4368,
      "Gal": 4369,
      "Kine": 4370,
      "Min": 4371,
      "Near": 4372,
      "Ped": 4373,
      "Pak": 4374,
      "Sim": 4375,
      "TW": 4376,
      "War": 4377,
      "aus": 4378,
      "bat": 4379,
      "bra": 4380,
      "bone": 4381,
      "cord": 4382,
      "cite": 4383,
      "drain": 4384,
      "gar": 4385,
      "ither": 4386,
      "ival": 4387,
      "ny": 4388,
      "ood": 4389,
      "pig": 4390,
      "pure": 4391,
      "ppered": 4392,
      "qan": 4393,
      "rats": 4394,
      "scre": 4395,
      "sens": 4396,
      "tren": 4397,
      "tons": 4398,
      "wol": 4399,
      "inci": 4400,
      "inhab": 4401,
      "retri": 4402,
      "readily": 4403,
      "escape": 4404,
      "enco": 4405,
      "eness": 4406,
      "ori": 4407,
      "alter": 4408,
      "altitu": 4409,
      "arose": 4410,
      "arise": 4411,
      "aste": 4412,
      "tides": 4413,
      "item": 4414,
      "accept": 4415,
      "semi": 4416,
      "selling": 4417,
      "debris": 4418,
      "agos": 4419,
      "forth": 4420,
      "moves": 4421,
      "mobi": 4422,
      "weaving": 4423,
      "igan": 4424,
      "peppered": 4425,
      "ulpt": 4426,
      "prop": 4427,
      "post": 4428,
      "idis": 4429,
      "frost": 4430,
      "females": 4431,
      "assess": 4432,
      "odor": 4433,
      "causing": 4434,
      "ounting": 4435,
      "homes": 4436,
      "rule": 4437,
      "rupt": 4438,
      "asty": 4439,
      "tends": 4440,
      "tended": 4441,
      "applic": 4442,
      "apagos": 4443,
      "izes": 4444,
      "preced": 4445,
      "trails": 4446,
      "shared": 4447,
      "suppression": 4448,
      "minim": 4449,
      "simpl": 4450,
      "sedentary": 4451,
      "sculpt": 4452,
      "valley": 4453,
      "constit": 4454,
      "1850s": 4455,
      "jected": 4456,
      "germin": 4457,
      "polic": 4458,
      "bird": 4459,
      "processing": 4460,
      "indicated": 4461,
      "painted": 4462,
      "farms": 4463,
      "millions": 4464,
      "cris": 4465,
      "dependence": 4466,
      "calor": 4467,
      "observation": 4468,
      "downstream": 4469,
      "Therefore": 4470,
      "reflects": 4471,
      "reflected": 4472,
      "reflective": 4473,
      "coastlines": 4474,
      "frag": 4475,
      "sounds": 4476,
      "discuss": 4477,
      "influential": 4478,
      "celled": 4479,
      "involves": 4480,
      "Northwest": 4481,
      "offspring": 4482,
      "dominate": 4483,
      "covering": 4484,
      "lantic": 4485,
      "Atlantic": 4486,
      "religion": 4487,
      "younger": 4488,
      "broth": 4489,
      "invad": 4490,
      "invasion": 4491,
      "Mesolithic": 4492,
      "designs": 4493,
      "hipidis": 4494,
      "insect": 4495,
      "Crete": 4496,
      "classes": 4497,
      "transported": 4498,
      "traveling": 4499,
      "crafts": 4500,
      "ecologists": 4501,
      "running": 4502,
      "pollution": 4503,
      "angiosperm": 4504,
      "pastoralist": 4505,
      "brief": 4506,
      "magne": 4507,
      "maintained": 4508,
      "experimental": 4509,
      "Sumerians": 4510,
      "mechanisms": 4511,
      "concentrations": 4512,
      "swim": 4513,
      "wares": 4514,
      "receive": 4515,
      "received": 4516,
      "letons": 4517,
      "reveal": 4518,
      "latter": 4519,
      "reservoirs": 4520,
      "ancestor": 4521,
      "encourage": 4522,
      "multiple": 4523,
      "geographic": 4524,
      "precisely": 4525,
      "earthqu": 4526,
      "reptiles": 4527,
      "timberline": 4528,
      "disease": 4529,
      "heavier": 4530,
      "respect": 4531,
      "sensitive": 4532,
      "Maori": 4533,
      "professional": 4534,
      "satis": 4535,
      "wrong": 4536,
      "solutions": 4537,
      "beaches": 4538,
      "excav": 4539,
      "Empire": 4540,
      "prevents": 4541,
      "breathing": 4542,
      "Vermeer": 4543,
      "Mountains": 4544,
      "sleep": 4545,
      "artificial": 4546,
      "accompl": 4547,
      "latitudes": 4548,
      "Clovis": 4549,
      "mantle": 4550,
      "money": 4551,
      "episodes": 4552,
      "Nevertheless": 4553,
      "California": 4554,
      "Evidence": 4555,
      "Galapagos": 4556,
      "Pedro": 4557,
      "TWO": 4558,
      "mobile": 4559,
      "11": 4560,
      "Ag": 4561,
      "Alex": 4562,
      "Bu": 4563,
      "Cl": 4564,
      "Ir": 4565,
      "Jan": 4566,
      "King": 4567,
      "Nios": 4568,
      "Paste": 4569,
      "Tho": 4570,
      "Val": 4571,
      "Vol": 4572,
      "aid": 4573,
      "bran": 4574,
      "cacti": 4575,
      "dated": 4576,
      "dous": 4577,
      "dimin": 4578,
      "fli": 4579,
      "fantasy": 4580,
      "gul": 4581,
      "jars": 4582,
      "ky": 4583,
      "mist": 4584,
      "mice": 4585,
      "nich": 4586,
      "pill": 4587,
      "rhipidis": 4588,
      "stic": 4589,
      "saguar": 4590,
      "uter": 4591,
      "vig": 4592,
      "theastern": 4593,
      "remove": 4594,
      "orous": 4595,
      "orae": 4596,
      "offer": 4597,
      "edi": 4598,
      "aram": 4599,
      "ingly": 4600,
      "tou": 4601,
      "tier": 4602,
      "itably": 4603,
      "enty": 4604,
      "severe": 4605,
      "degre": 4606,
      "aggres": 4607,
      "chment": 4608,
      "chie": 4609,
      "sures": 4610,
      "superior": 4611,
      "coordin": 4612,
      "forward": 4613,
      "imply": 4614,
      "aby": 4615,
      "weigh": 4616,
      "weaken": 4617,
      "whale": 4618,
      "excess": 4619,
      "unusually": 4620,
      "ules": 4621,
      "die": 4622,
      "prosper": 4623,
      "verbal": 4624,
      "parchment": 4625,
      "amnesia": 4626,
      "lif": 4627,
      "adjust": 4628,
      "assign": 4629,
      "umbi": 4630,
      "sizes": 4631,
      "porosity": 4632,
      "clam": 4633,
      "passes": 4634,
      "contents": 4635,
      "otherwise": 4636,
      "pressed": 4637,
      "emper": 4638,
      "tension": 4639,
      "logs": 4640,
      "appreci": 4641,
      "trace": 4642,
      "traffic": 4643,
      "That": 4644,
      "desc": 4645,
      "desire": 4646,
      "aux": 4647,
      "itee": 4648,
      "tedly": 4649,
      "buy": 4650,
      "arities": 4651,
      "box": 4652,
      "boats": 4653,
      "differed": 4654,
      "spir": 4655,
      "guild": 4656,
      "inters": 4657,
      "got": 4658,
      "prediction": 4659,
      "match": 4660,
      "mendous": 4661,
      "chool": 4662,
      "1860": 4663,
      "polis": 4664,
      "198": 4665,
      "tremendous": 4666,
      "ferti": 4667,
      "finance": 4668,
      "surviving": 4669,
      "getting": 4670,
      "graphy": 4671,
      "herbic": 4672,
      "advances": 4673,
      "shore": 4674,
      "inade": 4675,
      "Greeks": 4676,
      "metall": 4677,
      "nutrition": 4678,
      "slower": 4679,
      "combine": 4680,
      "persist": 4681,
      "otes": 4682,
      "medieval": 4683,
      "migratory": 4684,
      "drying": 4685,
      "necessarily": 4686,
      "Allende": 4687,
      "puts": 4688,
      "Asian": 4689,
      "decision": 4690,
      "desertification": 4691,
      "microscopic": 4692,
      "falls": 4693,
      "explanations": 4694,
      "----": 4695,
      "interesting": 4696,
      "connection": 4697,
      "connections": 4698,
      "consistent": 4699,
      "pastoralists": 4700,
      "seasons": 4701,
      "strateg": 4702,
      "independence": 4703,
      "estimated": 4704,
      "Indian": 4705,
      "science": 4706,
      "looked": 4707,
      "skeletons": 4708,
      "amphorae": 4709,
      "comparison": 4710,
      "Italy": 4711,
      "precious": 4712,
      "constantly": 4713,
      "harmony": 4714,
      "learned": 4715,
      "Beringian": 4716,
      "Coast": 4717,
      "cotton": 4718,
      "multicellular": 4719,
      "Columbi": 4720,
      "communications": 4721,
      "machine": 4722,
      "sample": 4723,
      "collap": 4724,
      "diseases": 4725,
      "decorative": 4726,
      "fixed": 4727,
      "substantial": 4728,
      "Forest": 4729,
      "lizards": 4730,
      "challenge": 4731,
      "gathere": 4732,
      "Much": 4733,
      "referred": 4734,
      "fluctuations": 4735,
      "fairly": 4736,
      "simultaneously": 4737,
      "deficient": 4738,
      "conquest": 4739,
      "contributing": 4740,
      "dangerous": 4741,
      "Large": 4742,
      "Panaram": 4743,
      "inevitably": 4744,
      "believes": 4745,
      "herbivores": 4746,
      "warblers": 4747,
      "citizens": 4748,
      "accompanied": 4749,
      "scattered": 4750,
      "Clark": 4751,
      "Denmark": 4752,
      "Kinetoscope": 4753,
      "Similar": 4754,
      "qanat": 4755,
      "propag": 4756,
      "magnetic": 4757,
      "Pasteur": 4758,
      "Valley": 4759,
      "niches": 4760,
      "degrees": 4761,
      "Panaramitee": 4762,
      "400": 4763,
      "700": 4764,
      "Cont": 4765,
      "DD": 4766,
      "Di": 4767,
      "Dutch": 4768,
      "Few": 4769,
      "Gra": 4770,
      "Iron": 4771,
      "Jap": 4772,
      "Not": 4773,
      "Pen": 4774,
      "Play": 4775,
      "Scot": 4776,
      "Swed": 4777,
      "Ter": 4778,
      "Yet": 4779,
      "aes": 4780,
      "aper": 4781,
      "btedly": 4782,
      "cun": 4783,
      "cate": 4784,
      "cure": 4785,
      "dents": 4786,
      "fan": 4787,
      "fants": 4788,
      "flies": 4789,
      "gian": 4790,
      "gase": 4791,
      "ito": 4792,
      "kings": 4793,
      "otype": 4794,
      "plots": 4795,
      "rum": 4796,
      "rising": 4797,
      "tun": 4798,
      "trou": 4799,
      "vare": 4800,
      "wat": 4801,
      "women": 4802,
      "yr": 4803,
      "yra": 4804,
      "zz": 4805,
      "inclus": 4806,
      "thetic": 4807,
      "reproductive": 4808,
      "atial": 4809,
      "estiv": 4810,
      "tot": 4811,
      "isions": 4812,
      "rose": 4813,
      "oubtedly": 4814,
      "heres": 4815,
      "beams": 4816,
      "dered": 4817,
      "detailed": 4818,
      "ilarities": 4819,
      "immen": 4820,
      "implies": 4821,
      "abrupt": 4822,
      "wel": 4823,
      "uration": 4824,
      "igraph": 4825,
      "condition": 4826,
      "exer": 4827,
      "exag": 4828,
      "unknown": 4829,
      "diets": 4830,
      "plenti": 4831,
      "persu": 4832,
      "perfe": 4833,
      "peraccumul": 4834,
      "parl": 4835,
      "tele": 4836,
      "lized": 4837,
      "fered": 4838,
      "nebul": 4839,
      "caves": 4840,
      "ichens": 4841,
      "durable": 4842,
      "hood": 4843,
      "canop": 4844,
      "Infants": 4845,
      "undoubtedly": 4846,
      "fication": 4847,
      "presses": 4848,
      "pressures": 4849,
      "rence": 4850,
      "surpl": 4851,
      "trig": 4852,
      "printers": 4853,
      "disappeared": 4854,
      "safe": 4855,
      "pene": 4856,
      "infanti": 4857,
      "arian": 4858,
      "rick": 4859,
      "spra": 4860,
      "factories": 4861,
      "ify": 4862,
      "undergo": 4863,
      "interactions": 4864,
      "similarities": 4865,
      "afford": 4866,
      "wells": 4867,
      "predynastic": 4868,
      "variability": 4869,
      "consci": 4870,
      "184": 4871,
      "185": 4872,
      "steadily": 4873,
      "gives": 4874,
      "polar": 4875,
      "containers": 4876,
      "hung": 4877,
      "depending": 4878,
      "ponder": 4879,
      "strike": 4880,
      "ferns": 4881,
      "chemically": 4882,
      "indirect": 4883,
      "Alvare": 4884,
      "Before": 4885,
      "lux": 4886,
      "advanced": 4887,
      "saurus": 4888,
      "turned": 4889,
      "potato": 4890,
      "responses": 4891,
      "westward": 4892,
      "similarly": 4893,
      "characterized": 4894,
      "nestling": 4895,
      "intention": 4896,
      "introduce": 4897,
      "leads": 4898,
      "fring": 4899,
      "nerve": 4900,
      "grasslands": 4901,
      "frequencies": 4902,
      "involving": 4903,
      "intelle": 4904,
      "particip": 4905,
      "commerce": 4906,
      "colonize": 4907,
      "ruling": 4908,
      "warming": 4909,
      "classical": 4910,
      "asteroids": 4911,
      "profits": 4912,
      "requirement": 4913,
      "requirements": 4914,
      "Without": 4915,
      "risk": 4916,
      "southwestern": 4917,
      "empty": 4918,
      "fourth": 4919,
      "potentially": 4920,
      "demands": 4921,
      "heads": 4922,
      "happens": 4923,
      "Brazilian": 4924,
      "concentration": 4925,
      "concentrate": 4926,
      "expect": 4927,
      "values": 4928,
      "Poly": 4929,
      "look": 4930,
      "manufactured": 4931,
      "botan": 4932,
      "failed": 4933,
      "spots": 4934,
      "eruption": 4935,
      "eruptions": 4936,
      "network": 4937,
      "vital": 4938,
      "aspect": 4939,
      "wheels": 4940,
      "holding": 4941,
      "blooded": 4942,
      "laid": 4943,
      "communication": 4944,
      "machines": 4945,
      "pictures": 4946,
      "square": 4947,
      "educ": 4948,
      "imenes": 4949,
      "Anaximenes": 4950,
      "administration": 4951,
      "skilled": 4952,
      "navigate": 4953,
      "Surface": 4954,
      "gained": 4955,
      "slightly": 4956,
      "conduct": 4957,
      "conducted": 4958,
      "conclusion": 4959,
      "exactly": 4960,
      "paleontologists": 4961,
      "concluded": 4962,
      "polyps": 4963,
      "thropo": 4964,
      "Athens": 4965,
      "Increased": 4966,
      "bridges": 4967,
      "alternative": 4968,
      "vulnerable": 4969,
      "impressive": 4970,
      "dynasty": 4971,
      "convinced": 4972,
      "humidity": 4973,
      "frontier": 4974,
      "Changes": 4975,
      "cylinder": 4976,
      "engravings": 4977,
      "trend": 4978,
      "wolves": 4979,
      "inhabited": 4980,
      "assigned": 4981,
      "DDT": 4982,
      "Japan": 4983,
      "cunei": 4984,
      "categ": 4985,
      "gaseous": 4986,
      "nebula": 4987,
      "infantile": 4988,
      "Alvarez": 4989,
      "intellect": 4990,
      "600": 4991,
      "Bas": 4992,
      "Che": 4993,
      "DN": 4994,
      "Dav": 4995,
      "EC": 4996,
      "Gl": 4997,
      "Hol": 4998,
      "Hun": 4999,
      "Hut": 5000,
      "Hales": 5001,
      "Ill": 5002,
      "Ket": 5003,
      "Late": 5004,
      "Later": 5005,
      "Lack": 5006,
      "Lakes": 5007,
      "Mon": 5008,
      "Ob": 5009,
      "Sound": 5010,
      "Wild": 5011,
      "ao": 5012,
      "aul": 5013,
      "bors": 5014,
      "bison": 5015,
      "bought": 5016,
      "card": 5017,
      "cise": 5018,
      "cceed": 5019,
      "ders": 5020,
      "eight": 5021,
      "fre": 5022,
      "fans": 5023,
      "gly": 5024,
      "gers": 5025,
      "hid": 5026,
      "ially": 5027,
      "ki": 5028,
      "lad": 5029,
      "mir": 5030,
      "mber": 5031,
      "ore": 5032,
      "oes": 5033,
      "ored": 5034,
      "osa": 5035,
      "plow": 5036,
      "ues": 5037,
      "uvi": 5038,
      "vice": 5039,
      "wider": 5040,
      "thal": 5041,
      "ink": 5042,
      "inas": 5043,
      "anthropo": 5044,
      "reproduction": 5045,
      "recovered": 5046,
      "rers": 5047,
      "reported": 5048,
      "attitu": 5049,
      "ern": 5050,
      "erod": 5051,
      "eno": 5052,
      "enable": 5053,
      "ensure": 5054,
      "oration": 5055,
      "offered": 5056,
      "edha": 5057,
      "isoto": 5058,
      "tired": 5059,
      "leans": 5060,
      "legal": 5061,
      "ston": 5062,
      "sten": 5063,
      "hears": 5064,
      "acce": 5065,
      "acids": 5066,
      "seals": 5067,
      "sell": 5068,
      "meg": 5069,
      "merely": 5070,
      "demo": 5071,
      "deli": 5072,
      "decom": 5073,
      "deliber": 5074,
      "agreed": 5075,
      "suffici": 5076,
      "succeed": 5077,
      "impossible": 5078,
      "ceased": 5079,
      "moti": 5080,
      "iridi": 5081,
      "peak": 5082,
      "confl": 5083,
      "confin": 5084,
      "consumption": 5085,
      "uncertain": 5086,
      "unexpected": 5087,
      "termed": 5088,
      "ulf": 5089,
      "perce": 5090,
      "ress": 5091,
      "ames": 5092,
      "fell": 5093,
      "essenti": 5094,
      "ria": 5095,
      "assist": 5096,
      "neither": 5097,
      "sized": 5098,
      "keys": 5099,
      "dogs": 5100,
      "pleas": 5101,
      "lled": 5102,
      "maize": 5103,
      "ficial": 5104,
      "press": 5105,
      "closer": 5106,
      "logging": 5107,
      "apply": 5108,
      "presum": 5109,
      "trap": 5110,
      "disadvantage": 5111,
      "disappearance": 5112,
      "dissolved": 5113,
      "shrubs": 5114,
      "overcome": 5115,
      "Thales": 5116,
      "develops": 5117,
      "itects": 5118,
      "relatives": 5119,
      "temples": 5120,
      "corpor": 5121,
      "obje": 5122,
      "volumes": 5123,
      "icetus": 5124,
      "marg": 5125,
      "carved": 5126,
      "going": 5127,
      "sional": 5128,
      "ranges": 5129,
      "ranging": 5130,
      "scen": 5131,
      "crosso": 5132,
      "accounts": 5133,
      "hyperaccumul": 5134,
      "constitu": 5135,
      "pests": 5136,
      "187": 5137,
      "1800": 5138,
      "clues": 5139,
      "steps": 5140,
      "Char": 5141,
      "monit": 5142,
      "evolving": 5143,
      "charge": 5144,
      "190": 5145,
      "depended": 5146,
      "inois": 5147,
      "computer": 5148,
      "And": 5149,
      "custom": 5150,
      "background": 5151,
      "shorel": 5152,
      "sequences": 5153,
      "views": 5154,
      "mammoths": 5155,
      "mammoth": 5156,
      "contraction": 5157,
      "localization": 5158,
      "realized": 5159,
      "driving": 5160,
      "opened": 5161,
      "beneficial": 5162,
      "ueblo": 5163,
      "extend": 5164,
      "atmosph": 5165,
      "shipped": 5166,
      "cubic": 5167,
      "medium": 5168,
      "harder": 5169,
      "joint": 5170,
      "migrated": 5171,
      "reading": 5172,
      "lasting": 5173,
      "specialization": 5174,
      "colonized": 5175,
      "blocks": 5176,
      "select": 5177,
      "selected": 5178,
      "Southwest": 5179,
      "properly": 5180,
      "equally": 5181,
      "glacier": 5182,
      "glaciation": 5183,
      "separation": 5184,
      "Needha": 5185,
      "breakfast": 5186,
      "colder": 5187,
      "collect": 5188,
      "camps": 5189,
      "crucial": 5190,
      "talk": 5191,
      "occupation": 5192,
      "substance": 5193,
      "consisting": 5194,
      "pollut": 5195,
      "boundaries": 5196,
      "sandstone": 5197,
      "tectonic": 5198,
      "expanding": 5199,
      "Plant": 5200,
      "India": 5201,
      "looking": 5202,
      "supernatural": 5203,
      "modified": 5204,
      "OTEC": 5205,
      "instrumental": 5206,
      "Venetians": 5207,
      "shifted": 5208,
      "comparative": 5209,
      "laboratory": 5210,
      "biotic": 5211,
      "piece": 5212,
      "toxin": 5213,
      "expense": 5214,
      "Among": 5215,
      "networks": 5216,
      "precipit": 5217,
      "tasks": 5218,
      "holes": 5219,
      "livestock": 5220,
      "yields": 5221,
      "secrete": 5222,
      "companies": 5223,
      "metabolism": 5224,
      "fruits": 5225,
      "laws": 5226,
      "mutual": 5227,
      "invented": 5228,
      "attemp": 5229,
      "attempts": 5230,
      "aristocratic": 5231,
      "fifteenth": 5232,
      "banks": 5233,
      "conclude": 5234,
      "nickel": 5235,
      "occasional": 5236,
      "Orleans": 5237,
      "eliminate": 5238,
      "Guthri": 5239,
      "celebr": 5240,
      "permeability": 5241,
      "photosynthesis": 5242,
      "peasants": 5243,
      "rhythms": 5244,
      "sinking": 5245,
      "enhance": 5246,
      "straight": 5247,
      "motivation": 5248,
      "maximum": 5249,
      "Southeast": 5250,
      "acquire": 5251,
      "ambient": 5252,
      "chondrules": 5253,
      "chemistry": 5254,
      "dimensional": 5255,
      "contaminated": 5256,
      "Pakicetus": 5257,
      "items": 5258,
      "Volcan": 5259,
      "rhipidistian": 5260,
      "saguaro": 5261,
      "chief": 5262,
      "Clarkston": 5263,
      "Scotland": 5264,
      "Sweden": 5265,
      "aesthetic": 5266,
      "exagger": 5267,
      "plentiful": 5268,
      "parlors": 5269,
      "canopy": 5270,
      "ponderosa": 5271,
      "cuneiform": 5272,
      "DNA": 5273,
      "Hutton": 5274,
      "Kettle": 5275,
      "acceler": 5276,
      "iridium": 5277,
      "essentially": 5278,
      "atmospheric": 5279,
      "Guthrie": 5280,
      "75": 5281,
      "90": 5282,
      "Cor": 5283,
      "Cent": 5284,
      "Clim": 5285,
      "Canal": 5286,
      "Eco": 5287,
      "Eri": 5288,
      "Event": 5289,
      "Fren": 5290,
      "Gulf": 5291,
      "Ju": 5292,
      "Light": 5293,
      "Pre": 5294,
      "Pet": 5295,
      "Plate": 5296,
      "Res": 5297,
      "Sy": 5298,
      "Stu": 5299,
      "Spain": 5300,
      "Secon": 5301,
      "Te": 5302,
      "Wils": 5303,
      "brick": 5304,
      "fat": 5305,
      "fash": 5306,
      "gus": 5307,
      "gone": 5308,
      "gap": 5309,
      "gold": 5310,
      "hence": 5311,
      "hares": 5312,
      "iers": 5313,
      "job": 5314,
      "lten": 5315,
      "loud": 5316,
      "mers": 5317,
      "nx": 5318,
      "nation": 5319,
      "ptery": 5320,
      "rand": 5321,
      "son": 5322,
      "sort": 5323,
      "sides": 5324,
      "spend": 5325,
      "tine": 5326,
      "tines": 5327,
      "vas": 5328,
      "vate": 5329,
      "vince": 5330,
      "wing": 5331,
      "xy": 5332,
      "inj": 5333,
      "inally": 5334,
      "inations": 5335,
      "incorrect": 5336,
      "input": 5337,
      "recover": 5338,
      "reverse": 5339,
      "atol": 5340,
      "erarch": 5341,
      "onian": 5342,
      "enlar": 5343,
      "oring": 5344,
      "alt": 5345,
      "edges": 5346,
      "arts": 5347,
      "lope": 5348,
      "loans": 5349,
      "heating": 5350,
      "lynx": 5351,
      "acco": 5352,
      "acles": 5353,
      "sex": 5354,
      "seep": 5355,
      "bear": 5356,
      "belong": 5357,
      "ague": 5358,
      "raising": 5359,
      "ili": 5360,
      "church": 5361,
      "suited": 5362,
      "immun": 5363,
      "modest": 5364,
      "motor": 5365,
      "molten": 5366,
      "weap": 5367,
      "iring": 5368,
      "conve": 5369,
      "exists": 5370,
      "exclus": 5371,
      "terr": 5372,
      "province": 5373,
      "pling": 5374,
      "plaus": 5375,
      "vertical": 5376,
      "versions": 5377,
      "parad": 5378,
      "paratus": 5379,
      "resid": 5380,
      "lowland": 5381,
      "gered": 5382,
      "atever": 5383,
      "add": 5384,
      "ney": 5385,
      "cade": 5386,
      "noted": 5387,
      "duous": 5388,
      "ista": 5389,
      "context": 5390,
      "hosp": 5391,
      "map": 5392,
      "spec": 5393,
      "speeds": 5394,
      "fold": 5395,
      "apparatus": 5396,
      "prehistor": 5397,
      "traced": 5398,
      "traditions": 5399,
      "ively": 5400,
      "disagree": 5401,
      "discard": 5402,
      "shale": 5403,
      "desirable": 5404,
      "strat": 5405,
      "auth": 5406,
      "supposed": 5407,
      "greg": 5408,
      "bored": 5409,
      "ologically": 5410,
      "timate": 5411,
      "correspon": 5412,
      "corrid": 5413,
      "newly": 5414,
      "object": 5415,
      "artist": 5416,
      "architects": 5417,
      "berg": 5418,
      "lighting": 5419,
      "army": 5420,
      "eleven": 5421,
      "elevation": 5422,
      "gravit": 5423,
      "ift": 5424,
      "understory": 5425,
      "solve": 5426,
      "tiveness": 5427,
      "foods": 5428,
      "occurrence": 5429,
      "transform": 5430,
      "varieties": 5431,
      "comets": 5432,
      "choice": 5433,
      "refr": 5434,
      "180": 5435,
      "critici": 5436,
      "Chinas": 5437,
      "monkeys": 5438,
      "imentary": 5439,
      "showing": 5440,
      "osis": 5441,
      "196": 5442,
      "1950s": 5443,
      "ditionally": 5444,
      "strikes": 5445,
      "fertil": 5446,
      "standards": 5447,
      "communal": 5448,
      "recall": 5449,
      "remaining": 5450,
      "builders": 5451,
      "Unfortunately": 5452,
      "indicating": 5453,
      "statement": 5454,
      "suggesting": 5455,
      "structural": 5456,
      "description": 5457,
      "descriptions": 5458,
      "continues": 5459,
      "continuously": 5460,
      "floods": 5461,
      "opin": 5462,
      "salts": 5463,
      "stop": 5464,
      "stopped": 5465,
      "stret": 5466,
      "advance": 5467,
      "reduces": 5468,
      "palach": 5469,
      "oldest": 5470,
      "handle": 5471,
      "calcite": 5472,
      "fungus": 5473,
      "affects": 5474,
      "observe": 5475,
      "jud": 5476,
      "hierarch": 5477,
      "influences": 5478,
      "grassland": 5479,
      "cultures": 5480,
      "hypotheses": 5481,
      "integr": 5482,
      "shipbuilding": 5483,
      "dominance": 5484,
      "itecture": 5485,
      "hardness": 5486,
      "joined": 5487,
      "colonies": 5488,
      "reasonable": 5489,
      "brow": 5490,
      "exploited": 5491,
      "puzz": 5492,
      "stronger": 5493,
      "strongly": 5494,
      "microbes": 5495,
      "equival": 5496,
      "contrasting": 5497,
      "Suess": 5498,
      "harves": 5499,
      "teacher": 5500,
      "misleading": 5501,
      "profitable": 5502,
      "cash": 5503,
      "measuring": 5504,
      "determines": 5505,
      "determinate": 5506,
      "operate": 5507,
      "operating": 5508,
      "deltas": 5509,
      "collecting": 5510,
      "follows": 5511,
      "accumulated": 5512,
      "secondary": 5513,
      "decreases": 5514,
      "wooded": 5515,
      "accuracy": 5516,
      "Within": 5517,
      "southwest": 5518,
      "fourteenth": 5519,
      "copper": 5520,
      "centralized": 5521,
      "brities": 5522,
      "magma": 5523,
      "preservation": 5524,
      "Islands": 5525,
      "densely": 5526,
      "principle": 5527,
      "myster": 5528,
      "estimates": 5529,
      "instrument": 5530,
      "manufacturing": 5531,
      "receives": 5532,
      "eyes": 5533,
      "globe": 5534,
      "steady": 5535,
      "Hawaiian": 5536,
      "Exper": 5537,
      "literacy": 5538,
      "assume": 5539,
      "concern": 5540,
      "Now": 5541,
      "theaters": 5542,
      "bolide": 5543,
      "evalu": 5544,
      "neighbors": 5545,
      "service": 5546,
      "marshes": 5547,
      "ceramic": 5548,
      "ratio": 5549,
      "entertain": 5550,
      "ceremonies": 5551,
      "atoms": 5552,
      "nectaries": 5553,
      "kingdoms": 5554,
      "aristocracy": 5555,
      "innovations": 5556,
      "interpretation": 5557,
      "substantially": 5558,
      "beliefs": 5559,
      "centimeter": 5560,
      "texts": 5561,
      "projection": 5562,
      "consume": 5563,
      "capture": 5564,
      "dispersal": 5565,
      "sharp": 5566,
      "Despite": 5567,
      "oriented": 5568,
      "progressive": 5569,
      "intensively": 5570,
      "Architecture": 5571,
      "celebrities": 5572,
      "permeable": 5573,
      "Meland": 5574,
      "attributed": 5575,
      "parasite": 5576,
      "1830s": 5577,
      "Appalach": 5578,
      "Iranian": 5579,
      "dwelling": 5580,
      "efficiently": 5581,
      "assembly": 5582,
      "elaborate": 5583,
      "disturbance": 5584,
      "silicon": 5585,
      "nomadic": 5586,
      "rabbits": 5587,
      "porcelain": 5588,
      "intensified": 5589,
      "Certain": 5590,
      "screen": 5591,
      "sculpture": 5592,
      "policy": 5593,
      "crisis": 5594,
      "excavated": 5595,
      "Class": 5596,
      "flippers": 5597,
      "coordinated": 5598,
      "inadequate": 5599,
      "yrus": 5600,
      "immense": 5601,
      "exercise": 5602,
      "penetr": 5603,
      "David": 5604,
      "Illinois": 5605,
      "confined": 5606,
      "presumably": 5607,
      "crossoptery": 5608,
      "shoreline": 5609,
      "Kettlewell": 5610,
      "Central": 5611,
      "Erie": 5612,
      "Eventually": 5613,
      "French": 5614,
      "Second": 5615,
      "fashion": 5616,
      "weapons": 5617,
      "plausible": 5618,
      "corridor": 5619,
      "fertility": 5620,
      "equivalent": 5621,
      "crossopterygian": 5622,
      "Au": 5623,
      "Abu": 5624,
      "Bay": 5625,
      "City": 5626,
      "Dou": 5627,
      "Dinosaur": 5628,
      "Dana": 5629,
      "Er": 5630,
      "Edis": 5631,
      "Fran": 5632,
      "Finally": 5633,
      "Hure": 5634,
      "Hel": 5635,
      "Jade": 5636,
      "James": 5637,
      "Kra": 5638,
      "Kam": 5639,
      "La": 5640,
      "Las": 5641,
      "Long": 5642,
      "Man": 5643,
      "Mer": 5644,
      "Mis": 5645,
      "Mich": 5646,
      "Mount": 5647,
      "Ol": 5648,
      "Opar": 5649,
      "Pol": 5650,
      "Pho": 5651,
      "avel": 5652,
      "blow": 5653,
      "bars": 5654,
      "bols": 5655,
      "bands": 5656,
      "cact": 5657,
      "ctiveness": 5658,
      "din": 5659,
      "dred": 5660,
      "eel": 5661,
      "eject": 5662,
      "fra": 5663,
      "furn": 5664,
      "flex": 5665,
      "festiv": 5666,
      "hil": 5667,
      "hide": 5668,
      "lor": 5669,
      "lion": 5670,
      "lam": 5671,
      "lago": 5672,
      "mound": 5673,
      "nate": 5674,
      "ners": 5675,
      "og": 5676,
      "ok": 5677,
      "otic": 5678,
      "pap": 5679,
      "pace": 5680,
      "pueblo": 5681,
      "rut": 5682,
      "rical": 5683,
      "sac": 5684,
      "sme": 5685,
      "swe": 5686,
      "spl": 5687,
      "spar": 5688,
      "song": 5689,
      "sav": 5690,
      "sque": 5691,
      "tent": 5692,
      "turb": 5693,
      "tario": 5694,
      "yage": 5695,
      "zen": 5696,
      "inity": 5697,
      "inhib": 5698,
      "incorpor": 5699,
      "anes": 5700,
      "anke": 5701,
      "renew": 5702,
      "reproduce": 5703,
      "remedi": 5704,
      "reaction": 5705,
      "reconstruct": 5706,
      "rehears": 5707,
      "attain": 5708,
      "onal": 5709,
      "ending": 5710,
      "enrich": 5711,
      "ornam": 5712,
      "aly": 5713,
      "aling": 5714,
      "allo": 5715,
      "ismo": 5716,
      "tiated": 5717,
      "tible": 5718,
      "rotation": 5719,
      "royal": 5720,
      "icc": 5721,
      "icts": 5722,
      "icate": 5723,
      "stations": 5724,
      "loce": 5725,
      "loose": 5726,
      "heart": 5727,
      "ented": 5728,
      "enters": 5729,
      "aciers": 5730,
      "seismo": 5731,
      "mec": 5732,
      "methan": 5733,
      "dete": 5734,
      "deple": 5735,
      "detr": 5736,
      "devo": 5737,
      "devised": 5738,
      "aggreg": 5739,
      "coasts": 5740,
      "foraging": 5741,
      "moose": 5742,
      "irrel": 5743,
      "petition": 5744,
      "conce": 5745,
      "concep": 5746,
      "conque": 5747,
      "convention": 5748,
      "tering": 5749,
      "terior": 5750,
      "prol": 5751,
      "prom": 5752,
      "projects": 5753,
      "proxy": 5754,
      "plat": 5755,
      "perspe": 5756,
      "performed": 5757,
      "cipl": 5758,
      "lowest": 5759,
      "ama": 5760,
      "americ": 5761,
      "cture": 5762,
      "lie": 5763,
      "compression": 5764,
      "components": 5765,
      "adul": 5766,
      "neon": 5767,
      "umn": 5768,
      "sidian": 5769,
      "portions": 5770,
      "evident": 5771,
      "iston": 5772,
      "contact": 5773,
      "earch": 5774,
      "plement": 5775,
      "lls": 5776,
      "llar": 5777,
      "maps": 5778,
      "facts": 5779,
      "manner": 5780,
      "cents": 5781,
      "closed": 5782,
      "words": 5783,
      "preh": 5784,
      "ached": 5785,
      "discipl": 5786,
      "shor": 5787,
      "worth": 5788,
      "overland": 5789,
      "overseas": 5790,
      "buloce": 5791,
      "spheres": 5792,
      "obsidian": 5793,
      "periodically": 5794,
      "locate": 5795,
      "gravel": 5796,
      "grained": 5797,
      "caravel": 5798,
      "anywhere": 5799,
      "systematic": 5800,
      "afa": 5801,
      "differently": 5802,
      "goats": 5803,
      "effectiveness": 5804,
      "matic": 5805,
      "scill": 5806,
      "scene": 5807,
      "grounds": 5808,
      "blanke": 5809,
      "accounting": 5810,
      "thenware": 5811,
      "188": 5812,
      "189": 5813,
      "stellar": 5814,
      "trust": 5815,
      "expedi": 5816,
      "mono": 5817,
      "monarch": 5818,
      "evolve": 5819,
      "airs": 5820,
      "glas": 5821,
      "northeast": 5822,
      "ponds": 5823,
      "recru": 5824,
      "recording": 5825,
      "Until": 5826,
      "rainwater": 5827,
      "company": 5828,
      "Ancient": 5829,
      "calligraph": 5830,
      "planes": 5831,
      "industri": 5832,
      "habits": 5833,
      "plays": 5834,
      "shoe": 5835,
      "alongside": 5836,
      "similarity": 5837,
      "court": 5838,
      "shafts": 5839,
      "realm": 5840,
      "realize": 5841,
      "oceanic": 5842,
      "dried": 5843,
      "spreading": 5844,
      "habituation": 5845,
      "sheer": 5846,
      "finds": 5847,
      "Ontario": 5848,
      "slowed": 5849,
      "geologically": 5850,
      "migrate": 5851,
      "readers": 5852,
      "claims": 5853,
      "claimed": 5854,
      "impacts": 5855,
      "competitive": 5856,
      "competitor": 5857,
      "broke": 5858,
      "brown": 5859,
      "everywhere": 5860,
      "everyday": 5861,
      "Mesa": 5862,
      "surrounded": 5863,
      "stimulated": 5864,
      "associations": 5865,
      "illustrates": 5866,
      "trying": 5867,
      "functional": 5868,
      "circa": 5869,
      "issues": 5870,
      "univers": 5871,
      "twenty": 5872,
      "transporting": 5873,
      "cooler": 5874,
      "versely": 5875,
      "crabs": 5876,
      "Several": 5877,
      "ecology": 5878,
      "runoff": 5879,
      "decreasing": 5880,
      "winters": 5881,
      "copied": 5882,
      "floodplain": 5883,
      "aquatic": 5884,
      "favored": 5885,
      "gradual": 5886,
      "recognize": 5887,
      "drastic": 5888,
      "strategy": 5889,
      "symbols": 5890,
      "release": 5891,
      "Mesozoic": 5892,
      "Mesoameric": 5893,
      "myth": 5894,
      "swit": 5895,
      "Individ": 5896,
      "silent": 5897,
      "silver": 5898,
      "precision": 5899,
      "bulge": 5900,
      "anna": 5901,
      "improvements": 5902,
      "shifts": 5903,
      "comparable": 5904,
      "phenomena": 5905,
      "faults": 5906,
      "spores": 5907,
      "melt": 5908,
      "tongues": 5909,
      "Ambuloce": 5910,
      "careful": 5911,
      "mixed": 5912,
      "office": 5913,
      "Verde": 5914,
      "tested": 5915,
      "Egyptians": 5916,
      "Life": 5917,
      "angular": 5918,
      "masters": 5919,
      "squirrel": 5920,
      "situations": 5921,
      "weakness": 5922,
      "workshop": 5923,
      "conclusions": 5924,
      "About": 5925,
      "Aboriginal": 5926,
      "possessed": 5927,
      "sailors": 5928,
      "regarded": 5929,
      "regardless": 5930,
      "bank": 5931,
      "seagrasses": 5932,
      "polyp": 5933,
      "scripts": 5934,
      "niche": 5935,
      "thrown": 5936,
      "projected": 5937,
      "differs": 5938,
      "hearing": 5939,
      "heavily": 5940,
      "debate": 5941,
      "occasionally": 5942,
      "jaws": 5943,
      "imitate": 5944,
      "bridge": 5945,
      "Archae": 5946,
      "nuclear": 5947,
      "territory": 5948,
      "territories": 5949,
      "threatened": 5950,
      "diges": 5951,
      "taxonom": 5952,
      "transferred": 5953,
      "financial": 5954,
      "purchase": 5955,
      "documented": 5956,
      "movie": 5957,
      "movies": 5958,
      "noticeable": 5959,
      "fractures": 5960,
      "pumped": 5961,
      "details": 5962,
      "strictly": 5963,
      "equatorial": 5964,
      "scarce": 5965,
      "management": 5966,
      "retained": 5967,
      "enjoyed": 5968,
      "abandoned": 5969,
      "caux": 5970,
      "semiarid": 5971,
      "assessment": 5972,
      "earthquake": 5973,
      "accomplished": 5974,
      "pillars": 5975,
      "guilds": 5976,
      "Columbia": 5977,
      "Similarly": 5978,
      "Contin": 5979,
      "Diffe": 5980,
      "trouble": 5981,
      "inclusions": 5982,
      "totally": 5983,
      "botanists": 5984,
      "intellectual": 5985,
      "Glaciers": 5986,
      "hidden": 5987,
      "stencil": 5988,
      "megafa": 5989,
      "1870s": 5990,
      "Charles": 5991,
      "Research": 5992,
      "Syria": 5993,
      "hospitable": 5994,
      "prehistoric": 5995,
      "authors": 5996,
      "gravitational": 5997,
      "harvests": 5998,
      "Melander": 5999,
      "Douglas": 6000,
      "Dinosaurs": 6001,
      "Edison": 6002,
      "Hureyra": 6003,
      "Kramer": 6004,
      "Kamares": 6005,
      "Lascaux": 6006,
      "Olmec": 6007,
      "Oparin": 6008,
      "cactus": 6009,
      "eelgrass": 6010,
      "festivals": 6011,
      "papyrus": 6012,
      "remediation": 6013,
      "rehearsal": 6014,
      "methane": 6015,
      "concepts": 6016,
      "conquered": 6017,
      "conventional": 6018,
      "perspective": 6019,
      "Mesoamerica": 6020,
      "Ambulocetus": 6021,
      "26": 6022,
      "250": 6023,
      "3000": 6024,
      "900": 6025,
      "Ages": 6026,
      "Bo": 6027,
      "Cur": 6028,
      "Dis": 6029,
      "Dev": 6030,
      "Gaul": 6031,
      "Hist": 6032,
      "Lat": 6033,
      "Mod": 6034,
      "Mel": 6035,
      "Niles": 6036,
      "Pin": 6037,
      "Ra": 6038,
      "Ren": 6039,
      "San": 6040,
      "Ser": 6041,
      "Tur": 6042,
      "Tex": 6043,
      "Vir": 6044,
      "Yu": 6045,
      "bit": 6046,
      "bad": 6047,
      "bind": 6048,
      "bins": 6049,
      "bats": 6050,
      "bills": 6051,
      "cin": 6052,
      "caged": 6053,
      "citing": 6054,
      "dates": 6055,
      "eka": 6056,
      "ff": 6057,
      "fle": 6058,
      "fri": 6059,
      "ias": 6060,
      "jus": 6061,
      "lichens": 6062,
      "mild": 6063,
      "mounds": 6064,
      "nations": 6065,
      "nights": 6066,
      "pir": 6067,
      "phere": 6068,
      "pioneer": 6069,
      "rights": 6070,
      "scient": 6071,
      "tors": 6072,
      "upl": 6073,
      "ute": 6074,
      "uous": 6075,
      "vals": 6076,
      "wl": 6077,
      "wine": 6078,
      "yotes": 6079,
      "thre": 6080,
      "inland": 6081,
      "insp": 6082,
      "income": 6083,
      "innate": 6084,
      "inhospitable": 6085,
      "thed": 6086,
      "anish": 6087,
      "angl": 6088,
      "react": 6089,
      "reproduced": 6090,
      "referen": 6091,
      "rejected": 6092,
      "attic": 6093,
      "ery": 6094,
      "eries": 6095,
      "erness": 6096,
      "onset": 6097,
      "esimals": 6098,
      "endo": 6099,
      "encoun": 6100,
      "enberg": 6101,
      "orously": 6102,
      "alli": 6103,
      "ality": 6104,
      "alive": 6105,
      "alert": 6106,
      "ardi": 6107,
      "asing": 6108,
      "asked": 6109,
      "topo": 6110,
      "told": 6111,
      "isthen": 6112,
      "rodents": 6113,
      "ictions": 6114,
      "icuous": 6115,
      "legi": 6116,
      "stab": 6117,
      "loads": 6118,
      "entered": 6119,
      "acing": 6120,
      "acular": 6121,
      "sets": 6122,
      "seven": 6123,
      "seism": 6124,
      "secure": 6125,
      "bel": 6126,
      "beet": 6127,
      "melan": 6128,
      "meado": 6129,
      "delay": 6130,
      "decade": 6131,
      "raises": 6132,
      "chicks": 6133,
      "suck": 6134,
      "coprol": 6135,
      "cement": 6136,
      "abies": 6137,
      "abstr": 6138,
      "motions": 6139,
      "moss": 6140,
      "weeds": 6141,
      "olds": 6142,
      "olia": 6143,
      "urg": 6144,
      "urons": 6145,
      "consp": 6146,
      "conden": 6147,
      "whom": 6148,
      "exceptions": 6149,
      "united": 6150,
      "unreliable": 6151,
      "unification": 6152,
      "dient": 6153,
      "divid": 6154,
      "diversi": 6155,
      "provin": 6156,
      "pher": 6157,
      "phase": 6158,
      "phibians": 6159,
      "note": 6160,
      "resha": 6161,
      "telling": 6162,
      "amed": 6163,
      "female": 6164,
      "compositions": 6165,
      "usable": 6166,
      "adm": 6167,
      "aterpillars": 6168,
      "rix": 6169,
      "withstand": 6170,
      "sip": 6171,
      "sities": 6172,
      "dug": 6173,
      "isted": 6174,
      "answered": 6175,
      "hoe": 6176,
      "earthenware": 6177,
      "canal": 6178,
      "cloth": 6179,
      "closet": 6180,
      "llular": 6181,
      "creative": 6182,
      "emis": 6183,
      "managed": 6184,
      "folded": 6185,
      "survey": 6186,
      "trail": 6187,
      "training": 6188,
      "traders": 6189,
      "shr": 6190,
      "larv": 6191,
      "worms": 6192,
      "posing": 6193,
      "said": 6194,
      "augh": 6195,
      "populated": 6196,
      "temple": 6197,
      "aritime": 6198,
      "aked": 6199,
      "greens": 6200,
      "timately": 6201,
      "spin": 6202,
      "spru": 6203,
      "newbor": 6204,
      "thereby": 6205,
      "differenti": 6206,
      "elk": 6207,
      "locally": 6208,
      "mainland": 6209,
      "elev": 6210,
      "elevations": 6211,
      "gradient": 6212,
      "carving": 6213,
      "interact": 6214,
      "bival": 6215,
      "biologists": 6216,
      "smith": 6217,
      "thorough": 6218,
      "ranged": 6219,
      "predation": 6220,
      "transplanted": 6221,
      "matrix": 6222,
      "examination": 6223,
      "partners": 6224,
      "bling": 6225,
      "blings": 6226,
      "blades": 6227,
      "refined": 6228,
      "subtle": 6229,
      "1850": 6230,
      "1822": 6231,
      "Euphr": 6232,
      "steep": 6233,
      "Child": 6234,
      "charges": 6235,
      "appeals": 6236,
      "developmental": 6237,
      "193": 6238,
      "1900": 6239,
      "treat": 6240,
      "lays": 6241,
      "laying": 6242,
      "finished": 6243,
      "naturalistic": 6244,
      "flowed": 6245,
      "aws": 6246,
      "limits": 6247,
      "argues": 6248,
      "continuing": 6249,
      "continually": 6250,
      "litarian": 6251,
      "Animals": 6252,
      "floors": 6253,
      "floating": 6254,
      "optic": 6255,
      "originate": 6256,
      "curved": 6257,
      "citys": 6258,
      "voices": 6259,
      "advent": 6260,
      "restless": 6261,
      "controls": 6262,
      "hands": 6263,
      "skull": 6264,
      "rounded": 6265,
      "sedimentation": 6266,
      "owners": 6267,
      "reality": 6268,
      "drier": 6269,
      "drive": 6270,
      "introducing": 6271,
      "sheep": 6272,
      "engaged": 6273,
      "improving": 6274,
      "discusses": 6275,
      "cellar": 6276,
      "typeface": 6277,
      "aimed": 6278,
      "combat": 6279,
      "combinations": 6280,
      "fishing": 6281,
      "milli": 6282,
      "thinking": 6283,
      "emphasis": 6284,
      "colonizing": 6285,
      "competitors": 6286,
      "everything": 6287,
      "galley": 6288,
      "galleys": 6289,
      "prime": 6290,
      "private": 6291,
      "islanders": 6292,
      "exploiting": 6293,
      "stimulation": 6294,
      "rubbing": 6295,
      "microclimate": 6296,
      "falling": 6297,
      "thirteen": 6298,
      "industrialized": 6299,
      "Aristo": 6300,
      "arrival": 6301,
      "Neolithic": 6302,
      "Neander": 6303,
      "snail": 6304,
      "mission": 6305,
      "paid": 6306,
      "directed": 6307,
      "profit": 6308,
      "measures": 6309,
      "---": 6310,
      "cultivate": 6311,
      "adequate": 6312,
      "risks": 6313,
      "distribu": 6314,
      "filling": 6315,
      "emerge": 6316,
      "lingu": 6317,
      "nonliving": 6318,
      "hotter": 6319,
      "maintaining": 6320,
      "mechanism": 6321,
      "aquedu": 6322,
      "damaged": 6323,
      "Islam": 6324,
      "concentrated": 6325,
      "Plants": 6326,
      "Reg": 6327,
      "Recent": 6328,
      "wilderness": 6329,
      "myths": 6330,
      "swam": 6331,
      "attles": 6332,
      "nighttime": 6333,
      "northwest": 6334,
      "doubled": 6335,
      "biome": 6336,
      "published": 6337,
      "springs": 6338,
      "busy": 6339,
      "ancestral": 6340,
      "Amphibians": 6341,
      "avoidance": 6342,
      "seriously": 6343,
      "Geological": 6344,
      "taste": 6345,
      "regularly": 6346,
      "literature": 6347,
      "holds": 6348,
      "cotta": 6349,
      "concerto": 6350,
      "concerned": 6351,
      "wealthy": 6352,
      "1400": 6353,
      "Competition": 6354,
      "burned": 6355,
      "spectacular": 6356,
      "obviously": 6357,
      "Joao": 6358,
      "hosts": 6359,
      "signaling": 6360,
      "Survey": 6361,
      "restriction": 6362,
      "barren": 6363,
      "documents": 6364,
      "contributions": 6365,
      "interpret": 6366,
      "interpreted": 6367,
      "Fossil": 6368,
      "textile": 6369,
      "millennia": 6370,
      "Clements": 6371,
      "Cleisthen": 6372,
      "captured": 6373,
      "dispersed": 6374,
      "spontaneously": 6375,
      "pikes": 6376,
      "psychological": 6377,
      "nucle": 6378,
      "narrow": 6379,
      "insula": 6380,
      "tolerant": 6381,
      "tolerance": 6382,
      "simultaneous": 6383,
      "Humans": 6384,
      "peasant": 6385,
      "circulation": 6386,
      "Spanish": 6387,
      "motivated": 6388,
      "flourish": 6389,
      "repeatedly": 6390,
      "quarters": 6391,
      "Trade": 6392,
      "promote": 6393,
      "figurative": 6394,
      "utilitarian": 6395,
      "antelope": 6396,
      "confirmed": 6397,
      "employed": 6398,
      "drops": 6399,
      "weeks": 6400,
      "defense": 6401,
      "cordgrass": 6402,
      "sensory": 6403,
      "altitude": 6404,
      "germinate": 6405,
      "fragile": 6406,
      "Those": 6407,
      "branches": 6408,
      "aggressive": 6409,
      "prosperity": 6410,
      "descend": 6411,
      "fertiliz": 6412,
      "herbicide": 6413,
      "persistent": 6414,
      "strategies": 6415,
      "abruptly": 6416,
      "perfected": 6417,
      "category": 6418,
      "Wildman": 6419,
      "glyphos": 6420,
      "uvial": 6421,
      "democr": 6422,
      "sufficiently": 6423,
      "motifs": 6424,
      "Petroleum": 6425,
      "Wilson": 6426,
      "loudly": 6427,
      "injury": 6428,
      "seepage": 6429,
      "Experiments": 6430,
      "Appalachian": 6431,
      "Michigan": 6432,
      "Photo": 6433,
      "ejecta": 6434,
      "flexible": 6435,
      "pueblos": 6436,
      "incorporated": 6437,
      "industries": 6438,
      "stenciled": 6439,
      "Devonian": 6440,
      "Modern": 6441,
      "Texas": 6442,
      "scientist": 6443,
      "threats": 6444,
      "inspired": 6445,
      "beetles": 6446,
      "mosses": 6447,
      "conspicuous": 6448,
      "newborns": 6449,
      "Euphrates": 6450,
      "Aristotle": 6451,
      "Neanderthal": 6452,
      "Islamic": 6453,
      "Cleisthenes": 6454,
      ".),": 6455,
      "150": 6456,
      "120": 6457,
      "3100": 6458,
      "68": 6459,
      "Air": 6460,
      "Car": 6461,
      "Dom": 6462,
      "Dale": 6463,
      "Ed": 6464,
      "Fish": 6465,
      "Gre": 6466,
      "Gener": 6467,
      "Han": 6468,
      "Hence": 6469,
      "Koran": 6470,
      "Lit": 6471,
      "Mart": 6472,
      "Mey": 6473,
      "Old": 6474,
      "Pr": 6475,
      "Pal": 6476,
      "Pers": 6477,
      "Phy": 6478,
      "Pioneer": 6479,
      "Rams": 6480,
      "Ste": 6481,
      "Sep": 6482,
      "Stru": 6483,
      "Tim": 6484,
      "afield": 6485,
      "ba": 6486,
      "bare": 6487,
      "bould": 6488,
      "brane": 6489,
      "bbles": 6490,
      "cti": 6491,
      "ere": 6492,
      "ezed": 6493,
      "emotion": 6494,
      "fies": 6495,
      "fting": 6496,
      "flight": 6497,
      "fusion": 6498,
      "gills": 6499,
      "hat": 6500,
      "ition": 6501,
      "ius": 6502,
      "kary": 6503,
      "knew": 6504,
      "lage": 6505,
      "labo": 6506,
      "mn": 6507,
      "mits": 6508,
      "oing": 6509,
      "pest": 6510,
      "pack": 6511,
      "pick": 6512,
      "rh": 6513,
      "rants": 6514,
      "rones": 6515,
      "sight": 6516,
      "scep": 6517,
      "tists": 6518,
      "troo": 6519,
      "ued": 6520,
      "uary": 6521,
      "vant": 6522,
      "vines": 6523,
      "vorous": 6524,
      "won": 6525,
      "wal": 6526,
      "thur": 6527,
      "thood": 6528,
      "inct": 6529,
      "anks": 6530,
      "recept": 6531,
      "rebound": 6532,
      "represents": 6533,
      "erre": 6534,
      "eria": 6535,
      "enduring": 6536,
      "orus": 6537,
      "alay": 6538,
      "alarm": 6539,
      "edge": 6540,
      "arti": 6541,
      "asties": 6542,
      "toys": 6543,
      "iss": 6544,
      "isons": 6545,
      "tide": 6546,
      "tious": 6547,
      "tight": 6548,
      "stree": 6549,
      "stress": 6550,
      "seld": 6551,
      "sects": 6552,
      "beans": 6553,
      "beau": 6554,
      "deformed": 6555,
      "agers": 6556,
      "iled": 6557,
      "chains": 6558,
      "chron": 6559,
      "chlor": 6560,
      "coinci": 6561,
      "mod": 6562,
      "movable": 6563,
      "uras": 6564,
      "urated": 6565,
      "urium": 6566,
      "igs": 6567,
      "peting": 6568,
      "peeps": 6569,
      "conserve": 6570,
      "conserv": 6571,
      "whatever": 6572,
      "export": 6573,
      "exclu": 6574,
      "exciting": 6575,
      "unal": 6576,
      "unit": 6577,
      "uneven": 6578,
      "unnecessary": 6579,
      "unpredictable": 6580,
      "proven": 6581,
      "promis": 6582,
      "proceed": 6583,
      "permits": 6584,
      "verte": 6585,
      "resto": 6586,
      "sole": 6587,
      "idently": 6588,
      "idering": 6589,
      "amine": 6590,
      "amins": 6591,
      "ammon": 6592,
      "amino": 6593,
      "frog": 6594,
      "frozen": 6595,
      "fel": 6596,
      "comment": 6597,
      "compass": 6598,
      "compreh": 6599,
      "adding": 6600,
      "neut": 6601,
      "neurons": 6602,
      "outflow": 6603,
      "outlines": 6604,
      "formations": 6605,
      "ounted": 6606,
      "siblings": 6607,
      "utenberg": 6608,
      "keeps": 6609,
      "notable": 6610,
      "door": 6611,
      "contrad": 6612,
      "hoards": 6613,
      "ears": 6614,
      "canvas": 6615,
      "waterways": 6616,
      "ousin": 6617,
      "rud": 6618,
      "rup": 6619,
      "speak": 6620,
      "spected": 6621,
      "embed": 6622,
      "mani": 6623,
      "logic": 6624,
      "speciation": 6625,
      "tracts": 6626,
      "prise": 6627,
      "disappear": 6628,
      "disclaim": 6629,
      "shield": 6630,
      "tyrants": 6631,
      "Though": 6632,
      "pending": 6633,
      "buying": 6634,
      "minor": 6635,
      "minute": 6636,
      "aria": 6637,
      "arious": 6638,
      "correspond": 6639,
      "spent": 6640,
      "spatial": 6641,
      "elites": 6642,
      "firms": 6643,
      "guided": 6644,
      "grams": 6645,
      "cargo": 6646,
      "interfe": 6647,
      "intermedi": 6648,
      "interaction": 6649,
      "biologist": 6650,
      "requiring": 6651,
      "derive": 6652,
      "arsen": 6653,
      "predatory": 6654,
      "translocations": 6655,
      "blu": 6656,
      "crown": 6657,
      "substi": 6658,
      "basically": 6659,
      "critics": 6660,
      "Ross": 6661,
      "stere": 6662,
      "truly": 6663,
      "giving": 6664,
      "correctly": 6665,
      "culmin": 6666,
      "cyc": 6667,
      "cycl": 6668,
      "pond": 6669,
      "ponent": 6670,
      "denser": 6671,
      "densities": 6672,
      "standardi": 6673,
      "express": 6674,
      "expressed": 6675,
      "expression": 6676,
      "worldwide": 6677,
      "farmland": 6678,
      "Uni": 6679,
      "indication": 6680,
      "paint": 6681,
      "painters": 6682,
      "membrane": 6683,
      "compares": 6684,
      "float": 6685,
      "nition": 6686,
      "economies": 6687,
      "economically": 6688,
      "opposed": 6689,
      "sales": 6690,
      "probable": 6691,
      "Also": 6692,
      "voice": 6693,
      "voyage": 6694,
      "dynastic": 6695,
      "bread": 6696,
      "sequently": 6697,
      "ceptible": 6698,
      "viewing": 6699,
      "turning": 6700,
      "turnpikes": 6701,
      "orderly": 6702,
      "contract": 6703,
      "downward": 6704,
      "capabilities": 6705,
      "intended": 6706,
      "tribal": 6707,
      "protein": 6708,
      "extending": 6709,
      "nerves": 6710,
      "findings": 6711,
      "ilosaurus": 6712,
      "feeders": 6713,
      "sissip": 6714,
      "sugars": 6715,
      "geology": 6716,
      "deeply": 6717,
      "suming": 6718,
      "summers": 6719,
      "freeze": 6720,
      "specialists": 6721,
      "colonists": 6722,
      "ruled": 6723,
      "contribution": 6724,
      "lacking": 6725,
      "declines": 6726,
      "surroundings": 6727,
      "Venices": 6728,
      "decis": 6729,
      "representatives": 6730,
      "todays": 6731,
      "Arthur": 6732,
      "issue": 6733,
      "missing": 6734,
      "twigs": 6735,
      "breaking": 6736,
      "questioned": 6737,
      "depicted": 6738,
      "benefited": 6739,
      "southeastern": 6740,
      "delicate": 6741,
      "analog": 6742,
      "accumulation": 6743,
      "ecologist": 6744,
      "crude": 6745,
      "figure": 6746,
      "runs": 6747,
      "wooden": 6748,
      "recognition": 6749,
      "directions": 6750,
      "rigid": 6751,
      "southward": 6752,
      "rooms": 6753,
      "performing": 6754,
      "consistently": 6755,
      "richer": 6756,
      "magical": 6757,
      "attracted": 6758,
      "filmmakers": 6759,
      "seeing": 6760,
      "identifying": 6761,
      "drag": 6762,
      "consequently": 6763,
      "symbiotic": 6764,
      "distinction": 6765,
      "storm": 6766,
      "Indians": 6767,
      "colorful": 6768,
      "valued": 6769,
      "absorption": 6770,
      "Marss": 6771,
      "looks": 6772,
      "superorganism": 6773,
      "bulk": 6774,
      "bull": 6775,
      "rowing": 6776,
      "domestication": 6777,
      "adian": 6778,
      "biodiversity": 6779,
      "evergreens": 6780,
      "failures": 6781,
      "spoken": 6782,
      "cratering": 6783,
      "responsibility": 6784,
      "latest": 6785,
      "toxins": 6786,
      "herders": 6787,
      "feder": 6788,
      "forcement": 6789,
      "harmful": 6790,
      "vitamins": 6791,
      "engineers": 6792,
      "engineering": 6793,
      "officers": 6794,
      "investors": 6795,
      "investments": 6796,
      "definite": 6797,
      "services": 6798,
      "establishing": 6799,
      "Small": 6800,
      "repair": 6801,
      "Canadian": 6802,
      "navigation": 6803,
      "crossing": 6804,
      "varying": 6805,
      "fixation": 6806,
      "drilled": 6807,
      "paleo": 6808,
      "aguerre": 6809,
      "script": 6810,
      "protectionist": 6811,
      "strengthen": 6812,
      "Athenian": 6813,
      "remembering": 6814,
      "consumer": 6815,
      "liberal": 6816,
      "maker": 6817,
      "sharply": 6818,
      "Organ": 6819,
      "progress": 6820,
      "tellurium": 6821,
      "fundamentally": 6822,
      "narr": 6823,
      "thrive": 6824,
      "investigations": 6825,
      "solute": 6826,
      "photosynthetic": 6827,
      "Images": 6828,
      "healthy": 6829,
      "defici": 6830,
      "accidentally": 6831,
      "rhythm": 6832,
      "slope": 6833,
      "resemble": 6834,
      "attribut": 6835,
      "exceptionally": 6836,
      "vulnerability": 6837,
      "Shale": 6838,
      "efficiency": 6839,
      "quarter": 6840,
      "subsidence": 6841,
      "Siam": 6842,
      "Traditionally": 6843,
      "reinforcement": 6844,
      "Micrones": 6845,
      "listening": 6846,
      "imagine": 6847,
      "facilitate": 6848,
      "scrapes": 6849,
      "employ": 6850,
      "morning": 6851,
      "vicinity": 6852,
      "envelopes": 6853,
      "legumes": 6854,
      "preferences": 6855,
      "Miner": 6856,
      "battle": 6857,
      "brains": 6858,
      "braided": 6859,
      "purely": 6860,
      "retrieve": 6861,
      "application": 6862,
      "constitution": 6863,
      "caloric": 6864,
      "calorie": 6865,
      "invaders": 6866,
      "Alexander": 6867,
      "mistaken": 6868,
      "metallic": 6869,
      "collapse": 6870,
      "gatherers": 6871,
      "Peninsula": 6872,
      "television": 6873,
      "surpluses": 6874,
      "triggered": 6875,
      "hungry": 6876,
      "luxury": 6877,
      "fringing": 6878,
      "participate": 6879,
      "Basilosaurus": 6880,
      "mirr": 6881,
      "attitudes": 6882,
      "eroded": 6883,
      "decompose": 6884,
      "Needham": 6885,
      "comparatively": 6886,
      "attempting": 6887,
      "exaggerated": 6888,
      "accelerated": 6889,
      "Studies": 6890,
      "random": 6891,
      "enlarged": 6892,
      "terraces": 6893,
      "supposedly": 6894,
      "corresponding": 6895,
      "criticized": 6896,
      "Classical": 6897,
      "Helens": 6898,
      "Mississip": 6899,
      "dredge": 6900,
      "frame": 6901,
      "sparse": 6902,
      "squeezed": 6903,
      "adulthood": 6904,
      "shorter": 6905,
      "Different": 6906,
      "megafauna": 6907,
      "Current": 6908,
      "Histor": 6909,
      "Melanes": 6910,
      "Service": 6911,
      "friend": 6912,
      "justi": 6913,
      "angles": 6914,
      "endother": 6915,
      "melanic": 6916,
      "meadows": 6917,
      "coprolites": 6918,
      "divided": 6919,
      "Children": 6920,
      "fertilizer": 6921,
      "glyphosate": 6922,
      "Photography": 6923,
      "Little": 6924,
      "Martin": 6925,
      "Meyer": 6926,
      "Ramsay": 6927,
      "boulders": 6928,
      "scepters": 6929,
      "troops": 6930,
      "seldom": 6931,
      "beauti": 6932,
      "vertebr": 6933,
      "embedded": 6934,
      "standardized": 6935,
      "Mississippi": 6936,
      "\")": 6937,
      "79": 6938,
      "Agen": 6939,
      "Anat": 6940,
      "Bi": 6941,
      "Bir": 6942,
      "Bron": 6943,
      "Burg": 6944,
      "Cons": 6945,
      "Caled": 6946,
      "Del": 6947,
      "Daly": 6948,
      "Euras": 6949,
      "Fer": 6950,
      "Frequ": 6951,
      "Gi": 6952,
      "Ground": 6953,
      "Grass": 6954,
      "Gond": 6955,
      "Hart": 6956,
      "Hier": 6957,
      "Horses": 6958,
      "II": 6959,
      "Lev": 6960,
      "Lond": 6961,
      "Mi": 6962,
      "Mag": 6963,
      "Macro": 6964,
      "NO": 6965,
      "Nat": 6966,
      "Numer": 6967,
      "Ohi": 6968,
      "Oscill": 6969,
      "Pri": 6970,
      "Paper": 6971,
      "Phil": 6972,
      "Red": 6973,
      "Rath": 6974,
      "Revolution": 6975,
      "Redu": 6976,
      "Racco": 6977,
      "Sw": 6978,
      "Sed": 6979,
      "Sti": 6980,
      "Sch": 6981,
      "Select": 6982,
      "Steam": 6983,
      "Tr": 6984,
      "Tas": 6985,
      "Test": 6986,
      "Tod": 6987,
      "VNO": 6988,
      "Wind": 6989,
      "Youn": 6990,
      "Yawn": 6991,
      "apers": 6992,
      "azoic": 6993,
      "bum": 6994,
      "bry": 6995,
      "bark": 6996,
      "baby": 6997,
      "ctic": 6998,
      "cused": 6999,
      "clif": 7000,
      "caterpillars": 7001,
      "dd": 7002,
      "dict": 7003,
      "duration": 7004,
      "daguerre": 7005,
      "eu": 7006,
      "epo": 7007,
      "fal": 7008,
      "fas": 7009,
      "fly": 7010,
      "fare": 7011,
      "fate": 7012,
      "fight": 7013,
      "fins": 7014,
      "father": 7015,
      "hills": 7016,
      "iv": 7017,
      "iving": 7018,
      "kil": 7019,
      "lav": 7020,
      "lite": 7021,
      "lens": 7022,
      "lined": 7023,
      "lights": 7024,
      "mmo": 7025,
      "mph": 7026,
      "mates": 7027,
      "moral": 7028,
      "master": 7029,
      "maritime": 7030,
      "nur": 7031,
      "nip": 7032,
      "oy": 7033,
      "oak": 7034,
      "oks": 7035,
      "ocy": 7036,
      "py": 7037,
      "pan": 7038,
      "pren": 7039,
      "pits": 7040,
      "ptical": 7041,
      "pione": 7042,
      "sit": 7043,
      "scent": 7044,
      "sick": 7045,
      "school": 7046,
      "tap": 7047,
      "twel": 7048,
      "tista": 7049,
      "ust": 7050,
      "vac": 7051,
      "vous": 7052,
      "wro": 7053,
      "wax": 7054,
      "wanal": 7055,
      "zy": 7056,
      "zan": 7057,
      "zon": 7058,
      "thi": 7059,
      "inc": 7060,
      "inal": 7061,
      "inform": 7062,
      "inability": 7063,
      "inators": 7064,
      "inaccurate": 7065,
      "inputs": 7066,
      "thered": 7067,
      "ancho": 7068,
      "anatom": 7069,
      "anzan": 7070,
      "rew": 7071,
      "really": 7072,
      "recep": 7073,
      "replic": 7074,
      "reject": 7075,
      "remind": 7076,
      "retreated": 7077,
      "remn": 7078,
      "onpolis": 7079,
      "ests": 7080,
      "esirable": 7081,
      "endu": 7082,
      "ensur": 7083,
      "encing": 7084,
      "ensus": 7085,
      "enzy": 7086,
      "ordered": 7087,
      "alo": 7088,
      "alpine": 7089,
      "editing": 7090,
      "arable": 7091,
      "arget": 7092,
      "arranged": 7093,
      "aside": 7094,
      "ingen": 7095,
      "toad": 7096,
      "todd": 7097,
      "isen": 7098,
      "isers": 7099,
      "tied": 7100,
      "tits": 7101,
      "tige": 7102,
      "roof": 7103,
      "oul": 7104,
      "lect": 7105,
      "leach": 7106,
      "stat": 7107,
      "stun": 7108,
      "sters": 7109,
      "stated": 7110,
      "static": 7111,
      "loses": 7112,
      "loyal": 7113,
      "hered": 7114,
      "hemis": 7115,
      "entation": 7116,
      "acres": 7117,
      "acters": 7118,
      "sect": 7119,
      "seatic": 7120,
      "secular": 7121,
      "bell": 7122,
      "beings": 7123,
      "decomposition": 7124,
      "define": 7125,
      "rafts": 7126,
      "iling": 7127,
      "ildu": 7128,
      "chu": 7129,
      "cher": 7130,
      "suit": 7131,
      "coo": 7132,
      "cores": 7133,
      "coins": 7134,
      "coyotes": 7135,
      "forcing": 7136,
      "foragers": 7137,
      "imperi": 7138,
      "imens": 7139,
      "imports": 7140,
      "implic": 7141,
      "implied": 7142,
      "abroad": 7143,
      "absolute": 7144,
      "mose": 7145,
      "olfactory": 7146,
      "igno": 7147,
      "pecul": 7148,
      "conif": 7149,
      "conven": 7150,
      "exha": 7151,
      "unclear": 7152,
      "unpreced": 7153,
      "ulated": 7154,
      "proof": 7155,
      "proli": 7156,
      "propose": 7157,
      "proxim": 7158,
      "project": 7159,
      "protons": 7160,
      "phorus": 7161,
      "plum": 7162,
      "plumes": 7163,
      "placing": 7164,
      "novel": 7165,
      "pore": 7166,
      "pools": 7167,
      "poison": 7168,
      "powers": 7169,
      "powered": 7170,
      "version": 7171,
      "parliam": 7172,
      "estu": 7173,
      "resol": 7174,
      "sophy": 7175,
      "ample": 7176,
      "lihood": 7177,
      "thermore": 7178,
      "fear": 7179,
      "comfor": 7180,
      "commod": 7181,
      "admi": 7182,
      "assiz": 7183,
      "outward": 7184,
      "cavities": 7185,
      "antu": 7186,
      "alline": 7187,
      "alluvial": 7188,
      "allanzan": 7189,
      "umps": 7190,
      "sian": 7191,
      "uty": 7192,
      "evidently": 7193,
      "dustrial": 7194,
      "istan": 7195,
      "isturb": 7196,
      "doing": 7197,
      "dome": 7198,
      "focused": 7199,
      "hope": 7200,
      "cantile": 7201,
      "Inner": 7202,
      "Industrial": 7203,
      "illumin": 7204,
      "plex": 7205,
      "undesirable": 7206,
      "vies": 7207,
      "landmasses": 7208,
      "ticed": 7209,
      "tically": 7210,
      "Tommo": 7211,
      "ruption": 7212,
      "speaking": 7213,
      "ffered": 7214,
      "preschool": 7215,
      "prestige": 7216,
      "faced": 7217,
      "embry": 7218,
      "mania": 7219,
      "tenance": 7220,
      "closing": 7221,
      "logist": 7222,
      "loggers": 7223,
      "surpass": 7224,
      "gender": 7225,
      "ckney": 7226,
      "traits": 7227,
      "traded": 7228,
      "discr": 7229,
      "shine": 7230,
      "forehead": 7231,
      "worship": 7232,
      "Thir": 7233,
      "Through": 7234,
      "Thars": 7235,
      "mercantile": 7236,
      "desicc": 7237,
      "pens": 7238,
      "penny": 7239,
      "omin": 7240,
      "omass": 7241,
      "supplied": 7242,
      "suppress": 7243,
      "supplement": 7244,
      "buildu": 7245,
      "akonpolis": 7246,
      "bore": 7247,
      "boat": 7248,
      "organize": 7249,
      "newer": 7250,
      "elastic": 7251,
      "firm": 7252,
      "firn": 7253,
      "commis": 7254,
      "exploration": 7255,
      "maintenance": 7256,
      "lesser": 7257,
      "guess": 7258,
      "gray": 7259,
      "ifted": 7260,
      "worker": 7261,
      "serves": 7262,
      "intact": 7263,
      "undergone": 7264,
      "intervention": 7265,
      "biosis": 7266,
      "biomass": 7267,
      "natal": 7268,
      "solids": 7269,
      "requis": 7270,
      "check": 7271,
      "flakes": 7272,
      "ease": 7273,
      "matters": 7274,
      "variable": 7275,
      "variables": 7276,
      "scrat": 7277,
      "examine": 7278,
      "presenting": 7279,
      "willing": 7280,
      "accus": 7281,
      "subsurface": 7282,
      "substrate": 7283,
      "subjected": 7284,
      "completed": 7285,
      "186": 7286,
      "1800s": 7287,
      "clean": 7288,
      "cleared": 7289,
      "monu": 7290,
      "visions": 7291,
      "characters": 7292,
      "gla": 7293,
      "oscopic": 7294,
      "northeastern": 7295,
      "urnal": 7296,
      "finer": 7297,
      "recur": 7298,
      "indicator": 7299,
      "Hockney": 7300,
      "arguments": 7301,
      "compacted": 7302,
      "termes": 7303,
      "fossilized": 7304,
      "stores": 7305,
      "voked": 7306,
      "childhood": 7307,
      "streak": 7308,
      "luck": 7309,
      "backs": 7310,
      "palm": 7311,
      "handled": 7312,
      "experts": 7313,
      "Here": 7314,
      "Heat": 7315,
      "Norway": 7316,
      "contracted": 7317,
      "contracts": 7318,
      "State": 7319,
      "Statues": 7320,
      "calotype": 7321,
      "council": 7322,
      "shado": 7323,
      "protecting": 7324,
      "electro": 7325,
      "stonewares": 7326,
      "extension": 7327,
      "helpful": 7328,
      "nervous": 7329,
      "technologies": 7330,
      "engage": 7331,
      "engines": 7332,
      "hiber": 7333,
      "eventual": 7334,
      "saltworks": 7335,
      "patch": 7336,
      "senale": 7337,
      "slows": 7338,
      "internally": 7339,
      "geologist": 7340,
      "partially": 7341,
      "cule": 7342,
      "summar": 7343,
      "migrating": 7344,
      "starvation": 7345,
      "starlings": 7346,
      "specialize": 7347,
      "emphasized": 7348,
      "physic": 7349,
      "blocked": 7350,
      "radiated": 7351,
      "behavioral": 7352,
      "balance": 7353,
      "balanced": 7354,
      "vegetables": 7355,
      "representation": 7356,
      "reliability": 7357,
      "classic": 7358,
      "functioning": 7359,
      "Arctic": 7360,
      "Arsenale": 7361,
      "harness": 7362,
      "profound": 7363,
      "questionable": 7364,
      "politics": 7365,
      "interests": 7366,
      "Seagrass": 7367,
      "accumulations": 7368,
      "advantageous": 7369,
      "Paleontologists": 7370,
      "traditionally": 7371,
      "catan": 7372,
      "crystalline": 7373,
      "risons": 7374,
      "consisted": 7375,
      "pollinators": 7376,
      "copies": 7377,
      "emerging": 7378,
      "magic": 7379,
      "specifically": 7380,
      "sandy": 7381,
      "attraction": 7382,
      "relevant": 7383,
      "planktonic": 7384,
      "storms": 7385,
      "skeptical": 7386,
      "letter": 7387,
      "northwestern": 7388,
      "virus": 7389,
      "initiated": 7390,
      "returns": 7391,
      "returned": 7392,
      "biogeograph": 7393,
      "erupt": 7394,
      "temporal": 7395,
      "phytoremediation": 7396,
      "task": 7397,
      "poorly": 7398,
      "regularity": 7399,
      "literate": 7400,
      "accessible": 7401,
      "prevented": 7402,
      "extensively": 7403,
      "bigger": 7404,
      "biggest": 7405,
      "officials": 7406,
      "philosophy": 7407,
      "geography": 7408,
      "Color": 7409,
      "eaten": 7410,
      "losses": 7411,
      "approaches": 7412,
      "aquifers": 7413,
      "funds": 7414,
      "spectrum": 7415,
      "synchron": 7416,
      "difficulties": 7417,
      "himself": 7418,
      "mitted": 7419,
      "corners": 7420,
      "metabolic": 7421,
      "destructive": 7422,
      "billions": 7423,
      "tracks": 7424,
      "households": 7425,
      "Conversely": 7426,
      "Consequently": 7427,
      "decorated": 7428,
      "detecting": 7429,
      "conclusive": 7430,
      "genetically": 7431,
      "aristocrats": 7432,
      "Others": 7433,
      "autonom": 7434,
      "accio": 7435,
      "displays": 7436,
      "fifth": 7437,
      "fifteen": 7438,
      "fixing": 7439,
      "limitations": 7440,
      "Protista": 7441,
      "radical": 7442,
      "radically": 7443,
      "aminif": 7444,
      "fortunate": 7445,
      "distinguishing": 7446,
      "challenges": 7447,
      "challenged": 7448,
      "susceptible": 7449,
      "producers": 7450,
      "diffuse": 7451,
      "diffusion": 7452,
      "debated": 7453,
      "consumed": 7454,
      "exhibitors": 7455,
      "achievement": 7456,
      "Desert": 7457,
      "Mutoscope": 7458,
      "shelter": 7459,
      "eliminated": 7460,
      "regulation": 7461,
      "lumbering": 7462,
      "psychologists": 7463,
      "bringing": 7464,
      "skyscra": 7465,
      "symbolism": 7466,
      "manufacturers": 7467,
      "Human": 7468,
      "tests": 7469,
      "accident": 7470,
      "accidental": 7471,
      "Spallanzan": 7472,
      "sink": 7473,
      "slopes": 7474,
      "sloping": 7475,
      "inevitable": 7476,
      "stationed": 7477,
      "exceptional": 7478,
      "flourished": 7479,
      "calculating": 7480,
      "purchased": 7481,
      "exploitation": 7482,
      "dropped": 7483,
      "decided": 7484,
      "deciduous": 7485,
      "extracted": 7486,
      "dynasties": 7487,
      "Local": 7488,
      "Southern": 7489,
      "sorting": 7490,
      "speculation": 7491,
      "texture": 7492,
      "utilized": 7493,
      "orange": 7494,
      "stayed": 7495,
      "confirm": 7496,
      "phosphorus": 7497,
      "washed": 7498,
      "portrayed": 7499,
      "sustained": 7500,
      "gardens": 7501,
      "nonelite": 7502,
      "envelope": 7503,
      "enjoy": 7504,
      "caught": 7505,
      "analyzed": 7506,
      "batches": 7507,
      "garrisons": 7508,
      "pigment": 7509,
      "encode": 7510,
      "altitudes": 7511,
      "simplest": 7512,
      "swimming": 7513,
      "Agricult": 7514,
      "Agassiz": 7515,
      "Alexand": 7516,
      "Buck": 7517,
      "January": 7518,
      "diminish": 7519,
      "diminished": 7520,
      "vigorous": 7521,
      "vigorously": 7522,
      "touch": 7523,
      "weakened": 7524,
      "emperor": 7525,
      "appreciated": 7526,
      "auxili": 7527,
      "nutritional": 7528,
      "gatherer": 7529,
      "Pasteurs": 7530,
      "potatoes": 7531,
      "Polynes": 7532,
      "Polynesia": 7533,
      "Monte": 7534,
      "anthropologists": 7535,
      "isotopes": 7536,
      "tiredness": 7537,
      "conflict": 7538,
      "uncertainty": 7539,
      "objective": 7540,
      "margins": 7541,
      "scenes": 7542,
      "hyperaccumulators": 7543,
      "Ecologists": 7544,
      "jobs": 7545,
      "immunity": 7546,
      "specimens": 7547,
      "discarded": 7548,
      "entertainment": 7549,
      "penetrate": 7550,
      "Merchants": 7551,
      "split": 7552,
      "songs": 7553,
      "savanna": 7554,
      "tentacles": 7555,
      "seismograph": 7556,
      "promising": 7557,
      "neonate": 7558,
      "expeditions": 7559,
      "drastically": 7560,
      "switch": 7561,
      "Individual": 7562,
      "Pinyon": 7563,
      "Turkey": 7564,
      "Vircho": 7565,
      "Yucatan": 7566,
      "reference": 7567,
      "topography": 7568,
      "stabil": 7569,
      "seismic": 7570,
      "sucking": 7571,
      "admired": 7572,
      "larvae": 7573,
      "spruce": 7574,
      "smithy": 7575,
      "1930s": 7576,
      "millimeters": 7577,
      "linguistic": 7578,
      "attlesn": 7579,
      "descendants": 7580,
      "Hanseatic": 7581,
      "Palace": 7582,
      "Structure": 7583,
      "laborers": 7584,
      "rhiz": 7585,
      "artifacts": 7586,
      "streets": 7587,
      "peepshow": 7588,
      "conservative": 7589,
      "rudimentary": 7590,
      "interfere": 7591,
      "intermediate": 7592,
      "stereoscopic": 7593,
      "cycads": 7594,
      "University": 7595,
      "decisive": 7596,
      "analogous": 7597,
      "strengthened": 7598,
      "attributes": 7599,
      "Micronesia": 7600,
      "Minerals": 7601,
      "friendly": 7602,
      "Agenbroad": 7603,
      "Anatolia": 7604,
      "Burgess": 7605,
      "Groundwater": 7606,
      "Gondwanal": 7607,
      "Hierakonpolis": 7608,
      "Levant": 7609,
      "London": 7610,
      "Macrotermes": 7611,
      "Ohio": 7612,
      "Oscillation": 7613,
      "Raccoons": 7614,
      "Still": 7615,
      "Tasmania": 7616,
      "Testaccio": 7617,
      "Young": 7618,
      "Yawning": 7619,
      "bumper": 7620,
      "daguerreotype": 7621,
      "epoch": 7622,
      "wrote": 7623,
      "remnants": 7624,
      "ensuring": 7625,
      "imperial": 7626,
      "ignored": 7627,
      "unprecedented": 7628,
      "thermoregul": 7629,
      "commodity": 7630,
      "Tommotian": 7631,
      "discrimin": 7632,
      "Tharsis": 7633,
      "biogeographers": 7634,
      "auxiliary": 7635,
      "Gondwanaland": 7636,
      "\",": 7637,
      "21": 7638,
      "32": 7639,
      "45": 7640,
      "?\"": 7641,
      "Ale": 7642,
      "Ara": 7643,
      "Act": 7644,
      "Ass": 7645,
      "Around": 7646,
      "Ber": 7647,
      "Bal": 7648,
      "Bar": 7649,
      "Bent": 7650,
      "Babies": 7651,
      "Bantu": 7652,
      "Cri": 7653,
      "Ceno": 7654,
      "Cousin": 7655,
      "Did": 7656,
      "Dynastic": 7657,
      "Ein": 7658,
      "Every": 7659,
      "Easter": 7660,
      "Fil": 7661,
      "Four": 7662,
      "Flad": 7663,
      "Govern": 7664,
      "Gutenberg": 7665,
      "Hu": 7666,
      "Hy": 7667,
      "Hen": 7668,
      "Har": 7669,
      "Him": 7670,
      "Had": 7671,
      "Hemis": 7672,
      "Ine": 7673,
      "Kel": 7674,
      "Lu": 7675,
      "Lou": 7676,
      "Less": 7677,
      "Mor": 7678,
      "Mons": 7679,
      "None": 7680,
      "Pu": 7681,
      "Pha": 7682,
      "Pain": 7683,
      "Pred": 7684,
      "Run": 7685,
      "Str": 7686,
      "Sup": 7687,
      "Snow": 7688,
      "Ti": 7689,
      "Ty": 7690,
      "Tal": 7691,
      "Tree": 7692,
      "Vanc": 7693,
      "Vinci": 7694,
      "Various": 7695,
      "Wis": 7696,
      "Watt": 7697,
      "Wood": 7698,
      "aer": 7699,
      "ape": 7700,
      "avers": 7701,
      "band": 7702,
      "bred": 7703,
      "bite": 7704,
      "bold": 7705,
      "biting": 7706,
      "cn": 7707,
      "cli": 7708,
      "cine": 7709,
      "crit": 7710,
      "cadmi": 7711,
      "dol": 7712,
      "drew": 7713,
      "eon": 7714,
      "elo": 7715,
      "fted": 7716,
      "fric": 7717,
      "ffer": 7718,
      "gin": 7719,
      "gment": 7720,
      "gments": 7721,
      "gains": 7722,
      "gigan": 7723,
      "hes": 7724,
      "hit": 7725,
      "hill": 7726,
      "ipe": 7727,
      "iors": 7728,
      "jun": 7729,
      "jack": 7730,
      "kos": 7731,
      "lon": 7732,
      "las": 7733,
      "lap": 7734,
      "lava": 7735,
      "lming": 7736,
      "lasts": 7737,
      "laugh": 7738,
      "mate": 7739,
      "mma": 7740,
      "mists": 7741,
      "mason": 7742,
      "nont": 7743,
      "oc": 7744,
      "pic": 7745,
      "pages": 7746,
      "pared": 7747,
      "piston": 7748,
      "rush": 7749,
      "rattlesn": 7750,
      "sli": 7751,
      "slowing": 7752,
      "sche": 7753,
      "schem": 7754,
      "send": 7755,
      "tin": 7756,
      "tund": 7757,
      "tual": 7758,
      "tables": 7759,
      "uro": 7760,
      "uts": 7761,
      "vor": 7762,
      "vad": 7763,
      "vapor": 7764,
      "wag": 7765,
      "wid": 7766,
      "yer": 7767,
      "yle": 7768,
      "your": 7769,
      "zinc": 7770,
      "ints": 7771,
      "intr": 7772,
      "inking": 7773,
      "inadvert": 7774,
      "inches": 7775,
      "insufficient": 7776,
      "incenti": 7777,
      "intrig": 7778,
      "indeterminate": 7779,
      "invertebr": 7780,
      "ancy": 7781,
      "reper": 7782,
      "reforms": 7783,
      "review": 7784,
      "attle": 7785,
      "atile": 7786,
      "err": 7787,
      "ertification": 7788,
      "onar": 7789,
      "onics": 7790,
      "ensi": 7791,
      "entical": 7792,
      "enables": 7793,
      "enforced": 7794,
      "enclosed": 7795,
      "orch": 7796,
      "orious": 7797,
      "oflage": 7798,
      "alk": 7799,
      "alle": 7800,
      "arante": 7801,
      "asions": 7802,
      "assumption": 7803,
      "tomed": 7804,
      "tiers": 7805,
      "rot": 7806,
      "roles": 7807,
      "robins": 7808,
      "icit": 7809,
      "ouver": 7810,
      "lemma": 7811,
      "itan": 7812,
      "itation": 7813,
      "iture": 7814,
      "loco": 7815,
      "locked": 7816,
      "heights": 7817,
      "entry": 7818,
      "acac": 7819,
      "acid": 7820,
      "acies": 7821,
      "veins": 7822,
      "veys": 7823,
      "sees": 7824,
      "sections": 7825,
      "bee": 7826,
      "beam": 7827,
      "bears": 7828,
      "decess": 7829,
      "deposition": 7830,
      "depri": 7831,
      "depression": 7832,
      "deterior": 7833,
      "ray": 7834,
      "raise": 7835,
      "raft": 7836,
      "illi": 7837,
      "ilient": 7838,
      "chon": 7839,
      "cham": 7840,
      "suite": 7841,
      "sucked": 7842,
      "suspected": 7843,
      "suffered": 7844,
      "suffer": 7845,
      "code": 7846,
      "coating": 7847,
      "coats": 7848,
      "cooper": 7849,
      "cohes": 7850,
      "foraminif": 7851,
      "impur": 7852,
      "impet": 7853,
      "cember": 7854,
      "mob": 7855,
      "mold": 7856,
      "motive": 7857,
      "mobility": 7858,
      "weights": 7859,
      "olives": 7860,
      "uries": 7861,
      "irregular": 7862,
      "igm": 7863,
      "igen": 7864,
      "peace": 7865,
      "cone": 7866,
      "convert": 7867,
      "whol": 7868,
      "exe": 7869,
      "exchanges": 7870,
      "excell": 7871,
      "exchanged": 7872,
      "exported": 7873,
      "uncommon": 7874,
      "unchanged": 7875,
      "unrelated": 7876,
      "unstable": 7877,
      "terrain": 7878,
      "ulations": 7879,
      "ultimately": 7880,
      "dilemma": 7881,
      "proto": 7882,
      "proced": 7883,
      "promp": 7884,
      "phic": 7885,
      "plus": 7886,
      "plans": 7887,
      "plings": 7888,
      "notion": 7889,
      "verpool": 7890,
      "versus": 7891,
      "estyle": 7892,
      "restim": 7893,
      "resilient": 7894,
      "tebl": 7895,
      "orders": 7896,
      "idari": 7897,
      "identical": 7898,
      "amor": 7899,
      "gets": 7900,
      "ithful": 7901,
      "compressed": 7902,
      "component": 7903,
      "usal": 7904,
      "ador": 7905,
      "aded": 7906,
      "aters": 7907,
      "ribution": 7908,
      "assic": 7909,
      "neck": 7910,
      "nels": 7911,
      "odd": 7912,
      "output": 7913,
      "outwash": 7914,
      "capes": 7915,
      "cavity": 7916,
      "causal": 7917,
      "antly": 7918,
      "antlers": 7919,
      "formats": 7920,
      "sial": 7921,
      "porous": 7922,
      "uted": 7923,
      "notably": 7924,
      "clams": 7925,
      "istribution": 7926,
      "foot": 7927,
      "Indo": 7928,
      "Instead": 7929,
      "illness": 7930,
      "closure": 7931,
      "clothing": 7932,
      "viable": 7933,
      "landed": 7934,
      "mathem": 7935,
      "Toky": 7936,
      "rust": 7937,
      "asted": 7938,
      "astro": 7939,
      "crete": 7940,
      "facial": 7941,
      "emit": 7942,
      "emigr": 7943,
      "mangan": 7944,
      "manif": 7945,
      "centered": 7946,
      "tens": 7947,
      "logra": 7948,
      "logical": 7949,
      "izers": 7950,
      "izable": 7951,
      "izont": 7952,
      "entity": 7953,
      "prepar": 7954,
      "preval": 7955,
      "prepare": 7956,
      "predecess": 7957,
      "geners": 7958,
      "butter": 7959,
      "discour": 7960,
      "displaced": 7961,
      "disadvantages": 7962,
      "discharges": 7963,
      "shire": 7964,
      "shrub": 7965,
      "highland": 7966,
      "somewhere": 7967,
      "overly": 7968,
      "overwhe": 7969,
      "overcast": 7970,
      "Three": 7971,
      "mercy": 7972,
      "pulated": 7973,
      "sake": 7974,
      "yearly": 7975,
      "roughts": 7976,
      "omb": 7977,
      "omes": 7978,
      "relate": 7979,
      "buds": 7980,
      "mini": 7981,
      "mines": 7982,
      "mining": 7983,
      "arium": 7984,
      "fired": 7985,
      "acellular": 7986,
      "timing": 7987,
      "organizing": 7988,
      "spite": 7989,
      "spapers": 7990,
      "newspapers": 7991,
      "likewise": 7992,
      "likelihood": 7993,
      "regiments": 7994,
      "armies": 7995,
      "actory": 7996,
      "cessions": 7997,
      "volatile": 7998,
      "wool": 7999,
      "woody": 8000,
      "guard": 8001,
      "guarante": 8002,
      "graves": 8003,
      "ifts": 8004,
      "carav": 8005,
      "anyone": 8006,
      "anything": 8007,
      "struck": 8008,
      "ggia": 8009,
      "intru": 8010,
      "intake": 8011,
      "interchange": 8012,
      "interstellar": 8013,
      "intervals": 8014,
      "interrup": 8015,
      "natives": 8016,
      "systemat": 8017,
      "founded": 8018,
      "genera": 8019,
      "rye": 8020,
      "cheaper": 8021,
      "explaining": 8022,
      "flash": 8023,
      "goes": 8024,
      "gots": 8025,
      "predic": 8026,
      "predomin": 8027,
      "transl": 8028,
      "matched": 8029,
      "variation": 8030,
      "examining": 8031,
      "veniles": 8032,
      "crow": 8033,
      "accord": 8034,
      "hybri": 8035,
      "refused": 8036,
      "institu": 8037,
      "consin": 8038,
      "conson": 8039,
      "considering": 8040,
      "consensus": 8041,
      "1815": 8042,
      "1840": 8043,
      "Rock": 8044,
      "Chio": 8045,
      "vising": 8046,
      "visited": 8047,
      "poles": 8048,
      "1920": 8049,
      "1965": 8050,
      "daytime": 8051,
      "norm": 8052,
      "treas": 8053,
      "feration": 8054,
      "finches": 8055,
      "finned": 8056,
      "brilli": 8057,
      "naturalists": 8058,
      "tute": 8059,
      "rainy": 8060,
      "awaken": 8061,
      "limiting": 8062,
      "continuity": 8063,
      "fossilization": 8064,
      "Ants": 8065,
      "Antar": 8066,
      "farmer": 8067,
      "graphic": 8068,
      "probability": 8069,
      "oxen": 8070,
      "indium": 8071,
      "competed": 8072,
      "stood": 8073,
      "stops": 8074,
      "curious": 8075,
      "dynam": 8076,
      "herding": 8077,
      "herbs": 8078,
      "ensis": 8079,
      "volcanos": 8080,
      "restoration": 8081,
      "playing": 8082,
      "mustard": 8083,
      "inferior": 8084,
      "shop": 8085,
      "shock": 8086,
      "handic": 8087,
      "viewer": 8088,
      "practition": 8089,
      "problematic": 8090,
      "turns": 8091,
      "508": 8092,
      "anticip": 8093,
      "responded": 8094,
      "besides": 8095,
      "Heyer": 8096,
      "characterization": 8097,
      "characterize": 8098,
      "contrasts": 8099,
      "courtiers": 8100,
      "metro": 8101,
      "metamor": 8102,
      "calories": 8103,
      "fungal": 8104,
      "localized": 8105,
      "observ": 8106,
      "observing": 8107,
      "observers": 8108,
      "observable": 8109,
      "openings": 8110,
      "reflecting": 8111,
      "viously": 8112,
      "introduces": 8113,
      "protective": 8114,
      "extends": 8115,
      "knows": 8116,
      "improves": 8117,
      "researcher": 8118,
      "hypothetical": 8119,
      "hypothesized": 8120,
      "archaeology": 8121,
      "patric": 8122,
      "combines": 8123,
      "fishes": 8124,
      "fisheries": 8125,
      "shipbuilders": 8126,
      "milk": 8127,
      "partial": 8128,
      "migrations": 8129,
      "starts": 8130,
      "behaves": 8131,
      "abling": 8132,
      "lasted": 8133,
      "physis": 8134,
      "printed": 8135,
      "Wegeners": 8136,
      "galax": 8137,
      "explored": 8138,
      "explorers": 8139,
      "fying": 8140,
      "lacks": 8141,
      "declining": 8142,
      "burials": 8143,
      "warmed": 8144,
      "fluke": 8145,
      "muscles": 8146,
      "actively": 8147,
      "property": 8148,
      "ographic": 8149,
      "representing": 8150,
      "representations": 8151,
      "relied": 8152,
      "reliably": 8153,
      "classification": 8154,
      "Artists": 8155,
      "Super": 8156,
      "Success": 8157,
      "circle": 8158,
      "paired": 8159,
      "aboveground": 8160,
      "borne": 8161,
      "borrow": 8162,
      "extremes": 8163,
      "breakthrough": 8164,
      "Peru": 8165,
      "putting": 8166,
      "treeless": 8167,
      "istos": 8168,
      "traveled": 8169,
      "consideration": 8170,
      "sung": 8171,
      "pecies": 8172,
      "darkness": 8173,
      "Seeds": 8174,
      "dah": 8175,
      "snowfall": 8176,
      "snowshoe": 8177,
      "performers": 8178,
      "performances": 8179,
      "distribut": 8180,
      "kilometer": 8181,
      "magn": 8182,
      "floodplains": 8183,
      "damaging": 8184,
      "favors": 8185,
      "happening": 8186,
      "seeps": 8187,
      "seeking": 8188,
      "advertisers": 8189,
      "consequent": 8190,
      "tectum": 8191,
      "tectonics": 8192,
      "symbiosis": 8193,
      "Plato": 8194,
      "Regard": 8195,
      "storing": 8196,
      "Indiana": 8197,
      "coloration": 8198,
      "papermaking": 8199,
      "sket": 8200,
      "annually": 8201,
      "erode": 8202,
      "rowers": 8203,
      "settling": 8204,
      "affecting": 8205,
      "northward": 8206,
      "planetesimals": 8207,
      "planetarium": 8208,
      "link": 8209,
      "linking": 8210,
      "multitu": 8211,
      "virtual": 8212,
      "reveals": 8213,
      "historians": 8214,
      "faithful": 8215,
      "failure": 8216,
      "horizont": 8217,
      "schedu": 8218,
      "melted": 8219,
      "ordinarily": 8220,
      "bushel": 8221,
      "pointing": 8222,
      "Italians": 8223,
      "December": 8224,
      "Exp": 8225,
      "Geothermal": 8226,
      "Geographic": 8227,
      "literally": 8228,
      "Coelo": 8229,
      "Mayan": 8230,
      "extraordinary": 8231,
      "official": 8232,
      "geographical": 8233,
      "Very": 8234,
      "drawings": 8235,
      "Liverpool": 8236,
      "angers": 8237,
      "evaluation": 8238,
      "thinkers": 8239,
      "musicians": 8240,
      "1200s": 8241,
      "Commer": 8242,
      "exhibited": 8243,
      "spectator": 8244,
      "establishes": 8245,
      "destroying": 8246,
      "Oceania": 8247,
      "ratives": 8248,
      "secret": 8249,
      "Work": 8250,
      "mutations": 8251,
      "counterparts": 8252,
      "approximate": 8253,
      "philosopher": 8254,
      "philosophical": 8255,
      "prairies": 8256,
      "attempt": 8257,
      "decoration": 8258,
      "autumn": 8259,
      "lunar": 8260,
      "displayed": 8261,
      "possessions": 8262,
      "leadership": 8263,
      "iodine": 8264,
      "killed": 8265,
      "tricate": 8266,
      "frontality": 8267,
      "centimeters": 8268,
      "pushed": 8269,
      "pushing": 8270,
      "projections": 8271,
      "Scandinavi": 8272,
      "Midwestern": 8273,
      "confused": 8274,
      "capturing": 8275,
      "Increasingly": 8276,
      "awareness": 8277,
      "Desertification": 8278,
      "Leonar": 8279,
      "shelf": 8280,
      "orientation": 8281,
      "subsequently": 8282,
      "hydrologic": 8283,
      "fairs": 8284,
      "horseshoe": 8285,
      "narratives": 8286,
      "saturated": 8287,
      "insulated": 8288,
      "topic": 8289,
      "tolerate": 8290,
      "programs": 8291,
      "opposing": 8292,
      "harvested": 8293,
      "harvesting": 8294,
      "symbolic": 8295,
      "Humbold": 8296,
      "Whereas": 8297,
      "remote": 8298,
      "removal": 8299,
      "conquer": 8300,
      "adopt": 8301,
      "contributes": 8302,
      "digging": 8303,
      "replacement": 8304,
      "resembling": 8305,
      "stationary": 8306,
      "parasites": 8307,
      "1832": 8308,
      "financi": 8309,
      "financing": 8310,
      "believable": 8311,
      "calculations": 8312,
      "Apparent": 8313,
      "Short": 8314,
      "dwellings": 8315,
      "target": 8316,
      "converted": 8317,
      "conversion": 8318,
      "extracellular": 8319,
      "reindeer": 8320,
      "acquired": 8321,
      "convincing": 8322,
      "promoted": 8323,
      "speculate": 8324,
      "1975": 8325,
      "1970s": 8326,
      "mammalian": 8327,
      "figurines": 8328,
      "paying": 8329,
      "facilitated": 8330,
      "glassy": 8331,
      "radioactivity": 8332,
      "decaying": 8333,
      "sustainable": 8334,
      "morph": 8335,
      "vanished": 8336,
      "rabbit": 8337,
      "week": 8338,
      "porcelains": 8339,
      "violin": 8340,
      "1940s": 8341,
      "encoding": 8342,
      "minimum": 8343,
      "fragments": 8344,
      "earthquakes": 8345,
      "sleepy": 8346,
      "accomplish": 8347,
      "Thomas": 8348,
      "aggression": 8349,
      "superiority": 8350,
      "lifestyle": 8351,
      "adjustment": 8352,
      "descended": 8353,
      "boxes": 8354,
      "fertilized": 8355,
      "herbicides": 8356,
      "strategic": 8357,
      "tuning": 8358,
      "tunnels": 8359,
      "watch": 8360,
      "persuas": 8361,
      "surplus": 8362,
      "spraying": 8363,
      "conscious": 8364,
      "1855": 8365,
      "fringes": 8366,
      "Chemists": 8367,
      "Hunters": 8368,
      "freight": 8369,
      "kilogra": 8370,
      "laden": 8371,
      "deliberately": 8372,
      "succeeded": 8373,
      "perceive": 8374,
      "pleasant": 8375,
      "scenario": 8376,
      "hyperaccumulating": 8377,
      "constituents": 8378,
      "monitoring": 8379,
      "polluted": 8380,
      "pollutants": 8381,
      "precipitation": 8382,
      "precipitated": 8383,
      "Volcanic": 8384,
      "Climatic": 8385,
      "Tech": 8386,
      "atoll": 8387,
      "atolls": 8388,
      "paradigm": 8389,
      "stratum": 8390,
      "eleventh": 8391,
      "refractory": 8392,
      "opinion": 8393,
      "opinions": 8394,
      "hierarchy": 8395,
      "browse": 8396,
      "puzzling": 8397,
      "mystery": 8398,
      "mysterious": 8399,
      "progressively": 8400,
      "Ertebl": 8401,
      "dinoflage": 8402,
      "lagoon": 8403,
      "sacred": 8404,
      "sweet": 8405,
      "renewable": 8406,
      "allopatric": 8407,
      "detected": 8408,
      "depleted": 8409,
      "detractors": 8410,
      "aggregated": 8411,
      "platform": 8412,
      "calligraphy": 8413,
      "circadian": 8414,
      "universal": 8415,
      "squirrels": 8416,
      "Archaeologists": 8417,
      "digestion": 8418,
      "taxonomic": 8419,
      "Latin": 8420,
      "Raup": 8421,
      "piration": 8422,
      "uplifted": 8423,
      "encountered": 8424,
      "alertness": 8425,
      "provinces": 8426,
      "pherom": 8427,
      "reshape": 8428,
      "thoroughly": 8429,
      "nucleus": 8430,
      "democratic": 8431,
      "Green": 8432,
      "Sepkos": 8433,
      "Timber": 8434,
      "ctica": 8435,
      "erected": 8436,
      "emotional": 8437,
      "karyotes": 8438,
      "proceeded": 8439,
      "felt": 8440,
      "disclaimers": 8441,
      "correspondence": 8442,
      "crowns": 8443,
      "Organisms": 8444,
      "narrative": 8445,
      "deficiencies": 8446,
      "mirrors": 8447,
      "Melanesia": 8448,
      "endotherms": 8449,
      "beautiful": 8450,
      "Bronze": 8451,
      "Given": 8452,
      "Mithen": 8453,
      "Natural": 8454,
      "Philip": 8455,
      "Rathje": 8456,
      "Trans": 8457,
      "fascin": 8458,
      "kilns": 8459,
      "thiamine": 8460,
      "anchovies": 8461,
      "anatomy": 8462,
      "receptive": 8463,
      "ingenious": 8464,
      "toddlers": 8465,
      "leaching": 8466,
      "loyalty": 8467,
      "hereditary": 8468,
      "cooking": 8469,
      "conifers": 8470,
      "convenient": 8471,
      "exhaust": 8472,
      "proliferation": 8473,
      "parliament": 8474,
      "estuaries": 8475,
      "comfortable": 8476,
      "desiccation": 8477,
      "buildup": 8478,
      "commission": 8479,
      "natalensis": 8480,
      "accustomed": 8481,
      "glazed": 8482,
      "electrotechnology": 8483,
      "Agriculture": 8484,
      "discriminate": 8485,
      "Berlin": 8486,
      "Baltic": 8487,
      "Cenozoic": 8488,
      "Governments": 8489,
      "Himalay": 8490,
      "Hemisphere": 8491,
      "Kelps": 8492,
      "Louis": 8493,
      "Puget": 8494,
      "Phaistos": 8495,
      "Support": 8496,
      "Typ": 8497,
      "Vancouver": 8498,
      "Wisconsin": 8499,
      "cnidari": 8500,
      "cinema": 8501,
      "criteria": 8502,
      "cadmium": 8503,
      "friction": 8504,
      "masonry": 8505,
      "nontarget": 8506,
      "rattlesnake": 8507,
      "scheme": 8508,
      "schemes": 8509,
      "tundra": 8510,
      "vadose": 8511,
      "inadvertently": 8512,
      "acacia": 8513,
      "impurities": 8514,
      "impetus": 8515,
      "excellent": 8516,
      "procedures": 8517,
      "prompted": 8518,
      "restimated": 8519,
      "Tokyo": 8520,
      "manganese": 8521,
      "manifest": 8522,
      "predecessors": 8523,
      "overwhelming": 8524,
      "guarantee": 8525,
      "hybridi": 8526,
      "institutions": 8527,
      "Chioggia": 8528,
      "Antarctica": 8529,
      "Heyerdah": 8530,
      "borrowed": 8531,
      "schedule": 8532,
      "Coelophysis": 8533,
      "Leonardo": 8534,
      "Humboldt": 8535,
      "Erteblle": 8536,
      "dinoflagell": 8537,
      "Sepkoski": 8538,
      "cnidarians": 8539,
      "1000": 8540,
      "1300": 8541,
      "28": 8542,
      "2000": 8543,
      "34": 8544,
      "35": 8545,
      "38": 8546,
      "41": 8547,
      "5000": 8548,
      "85": 8549,
      "800": 8550,
      "96": 8551,
      "99": 8552,
      "AD": 8553,
      "Ama": 8554,
      "Adri": 8555,
      "Ci": 8556,
      "Care": 8557,
      "Cha": 8558,
      "Cob": 8559,
      "Cel": 8560,
      "Cany": 8561,
      "Clay": 8562,
      "Cath": 8563,
      "Clear": 8564,
      "Dider": 8565,
      "Does": 8566,
      "Donal": 8567,
      "Disturb": 8568,
      "Eisen": 8569,
      "Fe": 8570,
      "Fi": 8571,
      "Far": 8572,
      "Fif": 8573,
      "Gle": 8574,
      "Glo": 8575,
      "Gio": 8576,
      "Growing": 8577,
      "Her": 8578,
      "Hall": 8579,
      "Jom": 8580,
      "Kre": 8581,
      "Kno": 8582,
      "Know": 8583,
      "Lan": 8584,
      "Land": 8585,
      "Lichens": 8586,
      "Mus": 8587,
      "Mass": 8588,
      "Mach": 8589,
      "Malli": 8590,
      "Nearly": 8591,
      "National": 8592,
      "Nitrogen": 8593,
      "Our": 8594,
      "Pat": 8595,
      "Pic": 8596,
      "Pra": 8597,
      "Produ": 8598,
      "Plan": 8599,
      "Qu": 8600,
      "Ru": 8601,
      "Rus": 8602,
      "Right": 8603,
      "Rural": 8604,
      "Rail": 8605,
      "Rather": 8606,
      "Sol": 8607,
      "Sir": 8608,
      "Sci": 8609,
      "Song": 8610,
      "Stra": 8611,
      "Sign": 8612,
      "Seas": 8613,
      "Stre": 8614,
      "Salt": 8615,
      "Species": 8616,
      "Tun": 8617,
      "Tri": 8618,
      "Treat": 8619,
      "Using": 8620,
      "Uta": 8621,
      "Vi": 8622,
      "Vas": 8623,
      "Vill": 8624,
      "Wall": 8625,
      "Yellow": 8626,
      "ause": 8627,
      "bid": 8628,
      "bage": 8629,
      "bru": 8630,
      "bits": 8631,
      "bble": 8632,
      "bular": 8633,
      "bacco": 8634,
      "borders": 8635,
      "cis": 8636,
      "cou": 8637,
      "cage": 8638,
      "cue": 8639,
      "dor": 8640,
      "dad": 8641,
      "dules": 8642,
      "dumps": 8643,
      "droughts": 8644,
      "dangers": 8645,
      "eing": 8646,
      "effic": 8647,
      "egal": 8648,
      "fing": 8649,
      "fur": 8650,
      "fits": 8651,
      "fumes": 8652,
      "glands": 8653,
      "hic": 8654,
      "hall": 8655,
      "itic": 8656,
      "ibly": 8657,
      "jay": 8658,
      "jel": 8659,
      "kin": 8660,
      "koul": 8661,
      "lic": 8662,
      "lain": 8663,
      "lush": 8664,
      "lvan": 8665,
      "mess": 8666,
      "mum": 8667,
      "mans": 8668,
      "mine": 8669,
      "mian": 8670,
      "nt": 8671,
      "nour": 8672,
      "nsy": 8673,
      "ow": 8674,
      "pair": 8675,
      "pairs": 8676,
      "rim": 8677,
      "sation": 8678,
      "sca": 8679,
      "sale": 8680,
      "sought": 8681,
      "tard": 8682,
      "tamed": 8683,
      "ulo": 8684,
      "urable": 8685,
      "vine": 8686,
      "wings": 8687,
      "wished": 8688,
      "wrap": 8689,
      "wls": 8690,
      "yn": 8691,
      "ycle": 8692,
      "yards": 8693,
      "zel": 8694,
      "zero": 8695,
      "thless": 8696,
      "thmus": 8697,
      "inqu": 8698,
      "incl": 8699,
      "invari": 8700,
      "incu": 8701,
      "incomplete": 8702,
      "invisible": 8703,
      "inscri": 8704,
      "informal": 8705,
      "indefinite": 8706,
      "invoked": 8707,
      "intricate": 8708,
      "theor": 8709,
      "ank": 8710,
      "anem": 8711,
      "anwhile": 8712,
      "redi": 8713,
      "reign": 8714,
      "removing": 8715,
      "reproducing": 8716,
      "revised": 8717,
      "recycl": 8718,
      "replacing": 8719,
      "retard": 8720,
      "atal": 8721,
      "atical": 8722,
      "atories": 8723,
      "erad": 8724,
      "onia": 8725,
      "onograph": 8726,
      "escap": 8727,
      "enn": 8728,
      "ensu": 8729,
      "ends": 8730,
      "ensal": 8731,
      "encounter": 8732,
      "enabling": 8733,
      "orial": 8734,
      "edged": 8735,
      "ara": 8736,
      "aring": 8737,
      "arises": 8738,
      "arduous": 8739,
      "ask": 8740,
      "ingredi": 8741,
      "tother": 8742,
      "toms": 8743,
      "tobacco": 8744,
      "isistr": 8745,
      "tiary": 8746,
      "ross": 8747,
      "rosion": 8748,
      "rolling": 8749,
      "iced": 8750,
      "icated": 8751,
      "oured": 8752,
      "lets": 8753,
      "league": 8754,
      "itism": 8755,
      "itarian": 8756,
      "strain": 8757,
      "statu": 8758,
      "stling": 8759,
      "lobe": 8760,
      "load": 8761,
      "lock": 8762,
      "loos": 8763,
      "losing": 8764,
      "heard": 8765,
      "acre": 8766,
      "acle": 8767,
      "vehic": 8768,
      "seil": 8769,
      "behave": 8770,
      "det": 8771,
      "demes": 8772,
      "agh": 8773,
      "agon": 8774,
      "agents": 8775,
      "agencies": 8776,
      "iland": 8777,
      "suspect": 8778,
      "coar": 8779,
      "covers": 8780,
      "coevolution": 8781,
      "Theater": 8782,
      "impo": 8783,
      "imper": 8784,
      "imple": 8785,
      "immigr": 8786,
      "absent": 8787,
      "moll": 8788,
      "mosa": 8789,
      "web": 8790,
      "wear": 8791,
      "weavers": 8792,
      "olic": 8793,
      "olla": 8794,
      "urity": 8795,
      "urgy": 8796,
      "irie": 8797,
      "igmother": 8798,
      "conies": 8799,
      "consolid": 8800,
      "conception": 8801,
      "configur": 8802,
      "conceptions": 8803,
      "conspir": 8804,
      "concessions": 8805,
      "exts": 8806,
      "exchan": 8807,
      "expose": 8808,
      "extermin": 8809,
      "exotic": 8810,
      "unde": 8811,
      "unte": 8812,
      "unks": 8813,
      "unavailable": 8814,
      "unchanging": 8815,
      "unaltered": 8816,
      "unfortunately": 8817,
      "unwilling": 8818,
      "unfortunate": 8819,
      "uninterrup": 8820,
      "unpleasant": 8821,
      "terra": 8822,
      "terranean": 8823,
      "ulate": 8824,
      "ultimate": 8825,
      "dible": 8826,
      "dikes": 8827,
      "proposes": 8828,
      "phases": 8829,
      "pled": 8830,
      "plenty": 8831,
      "ham": 8832,
      "hair": 8833,
      "noticed": 8834,
      "nodules": 8835,
      "perplex": 8836,
      "versa": 8837,
      "verished": 8838,
      "parties": 8839,
      "estate": 8840,
      "resident": 8841,
      "respiration": 8842,
      "soot": 8843,
      "idy": 8844,
      "iders": 8845,
      "lows": 8846,
      "libr": 8847,
      "thermal": 8848,
      "feather": 8849,
      "featu": 8850,
      "comers": 8851,
      "compos": 8852,
      "compul": 8853,
      "comings": 8854,
      "comprise": 8855,
      "compens": 8856,
      "ustion": 8857,
      "users": 8858,
      "uscri": 8859,
      "adis": 8860,
      "advis": 8861,
      "adays": 8862,
      "redistribution": 8863,
      "withdrawn": 8864,
      "neath": 8865,
      "nebular": 8866,
      "outdated": 8867,
      "outputs": 8868,
      "quity": 8869,
      "formulated": 8870,
      "ums": 8871,
      "umatic": 8872,
      "sius": 8873,
      "paragraph2": 8874,
      "clou": 8875,
      "clari": 8876,
      "doses": 8877,
      "fowl": 8878,
      "ansas": 8879,
      "contexts": 8880,
      "hoppers": 8881,
      "chances": 8882,
      "Instru": 8883,
      "Independence": 8884,
      "Insects": 8885,
      "undis": 8886,
      "vile": 8887,
      "lla": 8888,
      "lles": 8889,
      "llig": 8890,
      "portable": 8891,
      "waterfowl": 8892,
      "meanings": 8893,
      "meaningful": 8894,
      "Toth": 8895,
      "othermally": 8896,
      "ruthless": 8897,
      "spears": 8898,
      "credible": 8899,
      "pressing": 8900,
      "rences": 8901,
      "ongated": 8902,
      "faction": 8903,
      "facility": 8904,
      "facilities": 8905,
      "mancy": 8906,
      "managing": 8907,
      "manuscri": 8908,
      "tenfold": 8909,
      "applies": 8910,
      "surge": 8911,
      "prepared": 8912,
      "ounded": 8913,
      "trick": 8914,
      "traces": 8915,
      "tracting": 8916,
      "prone": 8917,
      "prince": 8918,
      "inea": 8919,
      "achment": 8920,
      "trades": 8921,
      "disk": 8922,
      "disprove": 8923,
      "disagreed": 8924,
      "dishabituation": 8925,
      "disruption": 8926,
      "worse": 8927,
      "sometime": 8928,
      "ouras": 8929,
      "ouring": 8930,
      "ourne": 8931,
      "merged": 8932,
      "howler": 8933,
      "sapling": 8934,
      "saplings": 8935,
      "stran": 8936,
      "ideally": 8937,
      "relating": 8938,
      "relics": 8939,
      "ardines": 8940,
      "bustling": 8941,
      "arib": 8942,
      "fibro": 8943,
      "greener": 8944,
      "boiling": 8945,
      "boasted": 8946,
      "whenever": 8947,
      "corolla": 8948,
      "spur": 8949,
      "newcomers": 8950,
      "differential": 8951,
      "elongated": 8952,
      "commensal": 8953,
      "bert": 8954,
      "armed": 8955,
      "explicit": 8956,
      "ackish": 8957,
      "locating": 8958,
      "eleph": 8959,
      "elected": 8960,
      "wherever": 8961,
      "whereby": 8962,
      "gue": 8963,
      "guide": 8964,
      "grade": 8965,
      "cars": 8966,
      "carries": 8967,
      "fulfill": 8968,
      "rocky": 8969,
      "veleng": 8970,
      "gged": 8971,
      "underlying": 8972,
      "underneath": 8973,
      "intermit": 8974,
      "interiors": 8975,
      "biology": 8976,
      "sima": 8977,
      "smic": 8978,
      "founder": 8979,
      "foundation": 8980,
      "solitary": 8981,
      "cheeps": 8982,
      "derives": 8983,
      "flaw": 8984,
      "flats": 8985,
      "goal": 8986,
      "goals": 8987,
      "rank": 8988,
      "transactions": 8989,
      "matically": 8990,
      "maturation": 8991,
      "examined": 8992,
      "partner": 8993,
      "presently": 8994,
      "presentation": 8995,
      "blind": 8996,
      "blade": 8997,
      "accounted": 8998,
      "valid": 8999,
      "submerged": 9000,
      "evenly": 9001,
      "1810": 9002,
      "1820": 9003,
      "yson": 9004,
      "ysers": 9005,
      "Church": 9006,
      "expands": 9007,
      "month": 9008,
      "controversi": 9009,
      "imental": 9010,
      "glance": 9011,
      "glory": 9012,
      "polished": 9013,
      "politan": 9014,
      "1950": 9015,
      "1980": 9016,
      "1900s": 9017,
      "ditional": 9018,
      "leveled": 9019,
      "seaways": 9020,
      "birch": 9021,
      "finish": 9022,
      "financed": 9023,
      "successive": 9024,
      "students": 9025,
      "processed": 9026,
      "Soil": 9027,
      "brush": 9028,
      "brackish": 9029,
      "Paris": 9030,
      "naturalist": 9031,
      "indicators": 9032,
      "compound": 9033,
      "compact": 9034,
      "describing": 9035,
      "continuities": 9036,
      "tooth": 9037,
      "grouping": 9038,
      "Angiosper": 9039,
      "grand": 9040,
      "floaters": 9041,
      "nivores": 9042,
      "economics": 9043,
      "opponents": 9044,
      "planning": 9045,
      "oxid": 9046,
      "Alps": 9047,
      "stomach": 9048,
      "vore": 9049,
      "mentioning": 9050,
      "brea": 9051,
      "backbone": 9052,
      "palatial": 9053,
      "inferring": 9054,
      "shots": 9055,
      "shores": 9056,
      "saurs": 9057,
      "viewers": 9058,
      "searching": 9059,
      "crush": 9060,
      "antiquity": 9061,
      "Sometimes": 9062,
      "onesian": 9063,
      "Heavy": 9064,
      "Northern": 9065,
      "currency": 9066,
      "calm": 9067,
      "cales": 9068,
      "counting": 9069,
      "owner": 9070,
      "purified": 9071,
      "realization": 9072,
      "axis": 9073,
      "dries": 9074,
      "spreads": 9075,
      "capability": 9076,
      "reflex": 9077,
      "proteins": 9078,
      "helping": 9079,
      "fraction": 9080,
      "clearing": 9081,
      "feedback": 9082,
      "saltwater": 9083,
      "governed": 9084,
      "Britons": 9085,
      "sending": 9086,
      "atmospheres": 9087,
      "combining": 9088,
      "intellig": 9089,
      "percentage": 9090,
      "atherbacks": 9091,
      "offers": 9092,
      "offshore": 9093,
      "depositing": 9094,
      "rails": 9095,
      "identity": 9096,
      "identification": 9097,
      "ota": 9098,
      "lanes": 9099,
      "adaptive": 9100,
      "hardest": 9101,
      "thinner": 9102,
      "behaved": 9103,
      "agriculturalists": 9104,
      "specialist": 9105,
      "physically": 9106,
      "tablet": 9107,
      "colony": 9108,
      "everyone": 9109,
[...]
